{"<unk>":0,"<s>":1,"</s>":2,"!":3,"\"":4,"#":5,"$":6,"%":7,"&":8,"'":9,"(":10,")":11,"*":12,"+":13,",":14,"-":15,".":16,"/":17,"0":18,"1":19,"2":20,"3":21,"4":22,"5":23,"6":24,"7":25,"8":26,"9":27,":":28,";":29,"<":30,"=":31,">":32,"?":33,"@":34,"A":35,"B":36,"C":37,"D":38,"E":39,"F":40,"G":41,"H":42,"I":43,"J":44,"K":45,"L":46,"M":47,"N":48,"O":49,"P":50,"Q":51,"R":52,"S":53,"T":54,"U":55,"V":56,"W":57,"X":58,"Y":59,"Z":60,"[":61,"\\":62,"]":63,"^":64,"_":65,"`":66,"a":67,"b":68,"c":69,"d":70,"e":71,"f":72,"g":73,"h":74,"i":75,"j":76,"k":77,"l":78,"m":79,"n":80,"o":81,"p":82,"q":83,"r":84,"s":85,"t":86,"u":87,"v":88,"w":89,"x":90,"y":91,"z":92,"{":93,"|":94,"}":95,"~":96,"¡":97,"¢":98,"£":99,"¤":100,"¥":101,"¦":102,"§":103,"¨":104,"©":105,"ª":106,"«":107,"¬":108,"®":109,"¯":110,"°":111,"±":112,"²":113,"³":114,"´":115,"µ":116,"¶":117,"·":118,"¸":119,"¹":120,"º":121,"»":122,"¼":123,"½":124,"¾":125,"¿":126,"À":127,"Á":128,"Â":129,"Ã":130,"Ä":131,"Å":132,"Æ":133,"Ç":134,"È":135,"É":136,"Ê":137,"Ë":138,"Ì":139,"Í":140,"Î":141,"Ï":142,"Ð":143,"Ñ":144,"Ò":145,"Ó":146,"Ô":147,"Õ":148,"Ö":149,"×":150,"Ø":151,"Ù":152,"Ú":153,"Û":154,"Ü":155,"Ý":156,"Þ":157,"ß":158,"à":159,"á":160,"â":161,"ã":162,"ä":163,"å":164,"æ":165,"ç":166,"è":167,"é":168,"ê":169,"ë":170,"ì":171,"í":172,"î":173,"ï":174,"ð":175,"ñ":176,"ò":177,"ó":178,"ô":179,"õ":180,"ö":181,"÷":182,"ø":183,"ù":184,"ú":185,"û":186,"ü":187,"ý":188,"þ":189,"ÿ":190,"Ā":191,"ā":192,"Ă":193,"ă":194,"Ą":195,"ą":196,"Ć":197,"ć":198,"Ĉ":199,"ĉ":200,"Ċ":201,"ċ":202,"Č":203,"č":204,"Ď":205,"ď":206,"Đ":207,"đ":208,"Ē":209,"ē":210,"Ĕ":211,"ĕ":212,"Ė":213,"ė":214,"Ę":215,"ę":216,"Ě":217,"ě":218,"Ĝ":219,"ĝ":220,"Ğ":221,"ğ":222,"Ġ":223,"ġ":224,"Ģ":225,"ģ":226,"Ĥ":227,"ĥ":228,"Ħ":229,"ħ":230,"Ĩ":231,"ĩ":232,"Ī":233,"ī":234,"Ĭ":235,"ĭ":236,"Į":237,"į":238,"İ":239,"ı":240,"Ĳ":241,"ĳ":242,"Ĵ":243,"ĵ":244,"Ķ":245,"ķ":246,"ĸ":247,"Ĺ":248,"ĺ":249,"Ļ":250,"ļ":251,"Ľ":252,"ľ":253,"Ŀ":254,"ŀ":255,"Ł":256,"ł":257,"Ń":258,"¾Ð":259,"Ð¾Ð":260,"Ð½":261,"Ñģ":262,"ÑĢ":263,"Ð»":264,"ĤÐ":265,"ÑĤÐ":266,"Ð½Ð":267,"Ð²":268,"Ðº":269,"ÑĢÐ":270,"Ñĥ":271,"Ð¿":272,"ÑĮ":273,"Ð¼":274,"Ð´":275,"Ð»Ð":276,"Ñı":277,"Ñĭ":278,"ĠÐ¿":279,"Ð·":280,"ĠÑģ":281,"ĠÐ²":282,"Ñĩ":283,"ĠÐ½Ð":284,"ÐºÐ":285,"Ð´Ð":286,"Ð±":287,"Ð¾Ð²":288,"µÑ":289,"Ð¼Ð":290,"ÑĢÐ°":291,"Ð³":292,"ĠÑ":293,"Ð¾Ð»":294,"ÑĤÐ¾":295,"ÑĤÐµ":296,"ÑĩÐ":297,"¸Ñ":298,"µÑĤ":299,"Ð¹":300,"ÑĤÐ°":301,"Ð²Ð":302,"¾Ñģ":303,"Ð½Ð¸":304,"ĤÑĮ":305,"Ð¾Ð²Ð":306,"ÑĢÐµ":307,"°Ñ":308,"Ð¶":309,"Ð»Ð¸":310,"Ð¾Ð¼":311,"¾Ñ":312,"Ð»ÑĮ":313,"Ð¾Ð´":314,"Ð·Ð":315,"ĠÐ±":316,"ĠÐ½Ð°":317,"ÐºÐ°":318,"ĠÐ¿Ð":319,"ĠÐ½Ðµ":320,"ÐŁ":321,"ÐµÑĤ":322,"µÐ½":323,"Ð¾Ð³":324,"Ð¾Ð½":325,"ÑĤÐ²":326,"Ð»Ð°":327,"ÑĢÐ¸":328,"Ð¾Ð»ÑĮ":329,"ĠĠ":330,"ĠÐº":331,"ÑģÐ":332,"Ð³Ð":333,"ÑĤÐ¸":334,"Ð½Ñĭ":335,"Ð¾Ð¹":336,"Ð·Ð°":337,"Ð¾Ð²Ð°":338,"ĪÐ":339,"Ð¶Ð":340,"Ñİ":341,"ĠÑĥ":342,"Ð¾Ð±":343,"µÑģ":344,"Ð½Ð¾":345,"Ð½Ð°":346,"ÑĤÐµÐ»ÑĮ":347,"ĠÐ´Ð":348,"Ð»Ðµ":349,"ÑģÑı":350,"¾ÑĤ":351,"ĠÐ´":352,"ĨÐ":353,"Ð¿Ð":354,"ĠÑģÐ":355,"ĠÐ¼Ð":356,"Ñħ":357,"ĠÑĤ":358,"ĠÐ¼":359,"Ð¾Ð³Ð":360,"ÑĤÑĮ":361,"µÑĢ":362,"ĠÐ·Ð°":363,"īÐ":364,"Ð¾Ð»ÑĮÐ·":365,"ÐºÐ¸":366,"ĠÑĩ":367,"ÑĢÑĥ":368,"Ð±Ð":369,"ĠÐ²Ð":370,"Ð¾Ð»ÑĮÐ·Ð¾Ð²Ð°":371,"Ð´Ð°":372,"Ð¾Ð»ÑĮÐ·Ð¾Ð²Ð°ÑĤÐµÐ»ÑĮ":373,"ĠÑĢÐ°":374,"ÐŁÐ¾Ð»ÑĮÐ·Ð¾Ð²Ð°ÑĤÐµÐ»ÑĮ":375,"µÐ¼":376,"ÐĴ":377,"Ġ(":378,"Ġ1":379,"ĠÑį":380,"ÐºÐ¾":381,"âĢ":382,"ĠÐ³":383,"Ð½Ðµ":384,"Ð²Ð°":385,"Ð¡":386,"Ð¾Ð³Ð¾":387,"Ð¾Ð´Ð":388,"Ð¾Ð¶":389,"Ð¾Ðº":390,"ĠâĢ":391,"ÑĤÐ²ÐµÑĤ":392,"ÐĿ":393,"ÑĪÐ":394,"ĠÐºÐ°":395,"ĠÑĩÑĤÐ¾":396,"Ð´Ðµ":397,"Ð³Ð¾":398,"¸Ð":399,"Ð¼Ð¸":400,"°ÑĤÑĮ":401,"Ð»Ñı":402,"ĠÐ±Ñĭ":403,"Ð½Ñĥ":404,"ÑģÑ":405,"Ðŀ":406,"Ð¾Ð½Ð":407,"Ġ-":408,"ÑĤÐ²Ð":409,"Ð½Ð¸Ð":410,"Ðļ":411,"¾ÑĤÐ²ÐµÑĤ":412,"Ð¶Ðµ":413,"ÑīÐ":414,"¸Ñħ":415,"ÑĩÐ°":416,"Ð¾ÑĤÐ²ÐµÑĤ":417,"ĠÐ¾ÑĤÐ²ÐµÑĤ":418,"Ð¾Ðµ":419,"¸Ð·":420,"Ð¾Ð¿":421,"):":422,"ÐĿÐ":423,"¸ÑĤ":424,"ĠÑĤÐ°":425,"ĠÐ¿Ð¾":426,"ÑģÑĤ":427,"Ð¾ÑĤ":428,"ÐĲ":429,"ÑĩÐ¸":430,"Ð¾Ñģ":431,"..":432,"ĠÐ¾Ð±":433,"ĠÐ¿ÑĢÐ¸":434,"Ġ2":435,"ĠÐĴ":436,"ĠâĢĶ":437,"ĠĠĠĠ":438,"ÑĩÐµ":439,"ĠÐ²Ñĭ":440,"ÑģÐµ":441,"ĠÐŁ":442,"ÑĢÑĭ":443,"Ðĺ":444,"¸ÑĤÑĮ":445,"Ð²Ð¸":446,"ĦÐ":447,"Ð¾Ð·":448,"Ð¢":449,"Ð½Ð¸Ñı":450,"ĠÐ¿ÑĢÐ":451,"ĠÐ¿ÑĢ":452,"Ðľ":453,"Ð»Ð¾":454,"ĠÑı":455,"ÑģÑĮ":456,"Ð¸Ð·":457,"ĠÐ¡":458,"¾ÑĢ":459,"ÑĨÐ":460,"ÐĶ":461,"ĠÐ±Ð":462,"ĠÐŀ":463,"ÑģÐº":464,"Ð¾Ð»Ð":465,"¸Ð½":466,"Ð½Ð¸Ðµ":467,"ĠÐ¸Ð·":468,"ĠÑħ":469,"ĠÐºÐ°Ðº":470,"ĠÑĤÐµ":471,"Ð¼Ð°":472,"ĠÐ¾ÑĤ":473,"ĠÐ´Ðµ":474,"Ð¾Ð¼Ð":475,"ÑģÑĤÐ²Ð":476,"ĠÐļ":477,"Ðł":478,"Ð»Ñİ":479,"°Ñİ":480,"Ð¾Ð¶Ð":481,"ĠÐ·":482,"Ð½Ð¾Ð¹":483,"ĠÐĿÐ":484,"Ð¼Ðµ":485,"ÑĥÑ":486,"ĠÑįÑĤÐ¾":487,"¸Ñģ":488,"¾ÑĢÐ":489,"ĠÐºÐ¾":490,"ĠÑĢÐ°Ð·":491,"µÑĢÐµ":492,"ĠÐ¿Ð¾Ð´":493,"Ð»Ñĥ":494,"¸Ð¸":495,"Ð½ÑĭÐ¹":496,"ÐºÑĥ":497,"°Ð¼":498,"Ð½Ð¾Ñģ":499,"ĠÐ¿Ð¾Ñģ":500,"ĠÑģÑ":501,"ĠÐľ":502,"µÐ¹":503,"ĠÐ¿ÑĢÐµ":504,"Ñĳ":505,"Ð´Ð¸":506,"ÐµÑģ":507,"Ð½Ð¾Ð³Ð¾":508,"Ð½ÑĭÑħ":509,"ĠÐ²ÑģÐµ":510,"ĠÐĲ":511,"°Ñħ":512,"Ġ3":513,"ĠÐ´Ð°":514,"ÐµÑ":515,"°ÑĤ":516,"ĠÑĤÐ¾":517,"ĠÑģÑĤ":518,"ĠÑĤÐ°Ðº":519,"°Ðº":520,"Ð½ÑĭÐ":521,"Ð½ÑĭÐµ":522,"Ðĳ":523,"¸Ð¼":524,"ÑĪÐµ":525,"ĠÐ¢":526,"ĠÑĢÐµ":527,"ÑģÑĤÐ°":528,"ĠÐĶ":529,"Ð¿Ð°":530,"¸Ð»":531,"Ð²Ðµ":532,"ÑĢÐ¾Ñģ":533,"Ð´Ñĥ":534,"Â«":535,"Â»":536,"ĠÐĺ":537,"ÑĩÐµÑģ":538,"Ð¾ÐºÐ":539,"Ð½Ñı":540,"Ð¼ÐµÐ½":541,"¸Ð»Ð¸":542,"ĠÑģÐµ":543,"°ÑĢ":544,"ÑĤÐ¾ÑĢ":545,"¾ÑĤÐ":546,"ÑĥÑĤ":547,"ºÐ":548,"ĠÐ¾Ñģ":549,"ĠÂ«":550,"Ġ\"":551,"ĠÐ¶Ð":552,"Ð³Ð°":553,"ĠÐ±Ñĥ":554,"ÑģÐ°":555,"ÐµÐ¼":556,"µÐ³Ð¾":557,"ĠÐ½Ð¾":558,"ĠÐł":559,"ÐµÑĤÑģÑı":560,"ĠÑģÐ²":561,"Ð¾Ð»ÑĮÐºÐ¾":562,"Ð°Ðº":563,"Ð¾Ð½Ð°":564,"Ð¾Ð´Ð°":565,"ÑıÑ":566,"ÑģÐ¸":567,"ĠÐ¶Ðµ":568,"ĠÐµÑģ":569,"ĠÑģÑĤÐ°":570,"µÐ½ÑĮ":571,"Ðĵ":572,"ÑĥÑģ":573,"Ð¯":574,"ĠÐ¾Ð½":575,"...":576,"ÑĢÑı":577,"ĠÐ½Ð¸":578,"Ð£":579,"Ġ4":580,"ĠÐ¿Ð¾Ð»":581,"¸Ñİ":582,"Ð¾ÑĤÐ":583,"Ðķ":584,"Ð¾Ð¼Ñĥ":585,"ÑıÑĤ":586,"Ð»ÑģÑı":587,"ĠÑįÑ":588,"ĠâĢĵ":589,"ĠÐ¾ÑĤÐ":590,"µÐ·":591,"Ð±Ð¾":592,"¸ÑĨÐ":593,"ĪÑĮ":594,"ĠÑĦÐ":595,"Ð½Ð´":596,"Ð¾Ð³Ð´Ð°":597,"ĠÑįÑĤ":598,"°Ñģ":599,"Ð¸Ð½":600,"ÐµÐ³Ð¾":601,"Ð¸Ñģ":602,"Ð¾Ð±Ð":603,"ĠÐĳ":604,"ÐĽ":605,"ĠÐ´Ð»Ñı":606,"ÐĹ":607,"ĠÐµÐ³Ð¾":608,"Ð±Ðµ":609,"ĠÑħÐ":610,"Ð¾Ð¿Ð":611,"¸Ð¹":612,"µÐ":613,"Ð§":614,"ĠÑĩÐµ":615,"ĠÐ¿ÐµÑĢÐµ":616,"Ð¾Ð²Ðµ":617,"ĠÐ»Ð":618,"Ġ5":619,"Ð²Ñĭ":620,"Ð¾Ð½Ð¸":621,"ÑĤÐ¾ÑĢÑĭ":622,"¼Ð":623,"Ð½Ð°Ñı":624,"¾Ñħ":625,"ÑĩÐµÐ¼":626,"Ð´ÐµÑĤ":627,"ÑĩÐ°Ñģ":628,"Ð½Ð¾Ðµ":629,"ĠÐ»Ñİ":630,"Ð½Ð¾Ð²":631,"ÐºÐ¾Ð²":632,"ÑĥÑİ":633,"ÐºÐµ":634,"°Ð»ÑĮ":635,"µÐµ":636,"ĠÐ²Ðµ":637,"°ÑİÑ":638,"ĠÐ¸Ñģ":639,"µÑħ":640,"ĠĠĠ":641,"ÐŃ":642,"¸Ðµ":643,"°ÑİÑĤ":644,"Ð¿Ð¸":645,"Ð¾ÐºÐ°":646,"°ÑĪÐ":647,"Ð½ÑĭÐ¼":648,"ĤÑĥ":649,"ÑĤÑĥ":650,"ÑĪ":651,"¶Ð":652,"ĠÐµÑ":653,"°ÑĨÐ":654,"ÑģÐºÐ¸":655,"ÑĢÐ°Ð²":656,"¾ÑĪÐ":657,"°Ð»":658,"00":659,"Ð»Ð¾Ñģ":660,"ĠÐĵ":661,"ĠÑĢÐ°Ñģ":662,"¸Ñı":663,"ĠÐ¼Ð¾Ð¶":664,"īÐµ":665,"ĠÑĤÑĭ":666,"ĠÐŁÐ":667,"ĠÑĢÑĥ":668,"Ġ0":669,"ĠÐ¼Ð¸":670,"ĤÑĭ":671,"ÑĤÑĭ":672,"µÐ½Ñı":673,"ÑĢÐ¸Ð":674,"ĠÐ¿ÑĢÐ¾Ñģ":675,"ĠÐ¡Ð":676,"ÑĢÐ¾":677,"ĠÐ´ÑĢÑĥ":678,"Ð½Ð¸Ð¸":679,"ĠÐ»Ð¸":680,"ĠÐ³Ð":681,"°Ð½":682,"ĠÐ²Ð¸":683,"Ð»ÐµÐ½":684,"Ð·Ñĭ":685,"Ġ+":686,"ĠÑģÑĥ":687,"ĠÐºÐ¾ÑĤÐ¾ÑĢÑĭ":688,"Ð¸Ð»Ð¸":689,"ÑĢÐ¾Ð²":690,"ĠÑĨÐ":691,"Ð»Ñĭ":692,"ĠĠĠĠĠĠĠĠ":693,"ĠÐ¸Ð½":694,"ĠÐ±ÑĭÐ»Ð¾":695,"ÑĦÐ":696,"ĠÐľÐ":697,"ĠÐºÐ¾Ð½":698,"ĠÐ²Ð¾Ð·":699,"Ð¾Ð¶Ðµ":700,"Ġ6":701,"ĠÐ¾Ð´":702,"ĠÐ¿ÑĢÐµÐ´":703,"ÐºÐ¸Ñħ":704,"ĠÑģÐ°Ð¼":705,"Ð»Ð¾ÑģÑĮ":706,"Ġ=":707,"ĠÐ¼ÐµÐ½Ñı":708,"Ð»Ð°ÑģÑĮ":709,"ĠÐ¼Ðµ":710,"³Ð":711,"ĠÐ´Ð¾":712,"Ð²Ð°ÑĤÑĮ":713,"Ð¾Ð±Ñĭ":714,"µÑĪÐ":715,"Ð´ÑĮ":716,"ĠÐ¯":717,"ÑĩÐ½Ð¾":718,"ĠÐ¼Ð°":719,"ĠÐ±Ð¾Ð»ÑĮ":720,"ĠÐĴÐ":721,"Ð½Ð¾ÑģÑĤÑĮ":722,"ĠÐķ":723,"ĠÐ¼Ð½Ðµ":724,"Ð³Ð¸":725,"ĠÐĽ":726,"Ð¿Ðµ":727,"Ð¾Ð¾Ð":728,"ĠÑĤÐ¾Ð»ÑĮÐºÐ¾":729,"ĠÐ·Ð½Ð°":730,"ĠÐ£":731,"ĠÐ¿ÑĢÐ¾":732,"ĠÐ¼Ñĭ":733,"ĠÐļÐ":734,"Ð»Ð¸ÑģÑĮ":735,"Ð½Ð¾ÑģÑĤÐ¸":736,"Ð½Ð¾Ð¼":737,"Ð´Ñĭ":738,"µÑĢÐ":739,"°Ð²":740,"Ð¾Ð¸":741,"ĠÑģÐºÐ°":742,"µÐ½Ñ":743,"ĠÐ¸Ð»Ð¸":744,"Ð±Ñı":745,"ĠÐ²ÑĢÐµ":746,"Ð½Ð¸Ð¹":747,"ĠÑĥÐ¶Ðµ":748,"Ð¾Ð¾Ð±":749,"°Ð¹":750,"ĠÐĶÐ":751,"ÑĢÐ°Ð·":752,"µÐ½ÑĤ":753,"Ð¾Ð´Ð¸":754,"ĠÐµÑģÐ»Ð¸":755,"ÑģÑĤÐ²":756,"Ð¤":757,"Ð¥":758,"Ġ7":759,"ĠÐ±ÑĭÐ»":760,"ĠÐºÑĥ":761,"ĠÐ·Ð":762,"Ð²ÐµÑĢ":763,"Ð½ÐºÐ":764,"ĠÐºÐ¾Ð¼":765,"Ð¼ÐµÑĢ":766,"ÐºÐ¾Ð¼":767,"er":768,"µÐ²":769,"ÐĹÐ":770,"Ð¸Ñħ":771,"ĠÐŃ":772,"ÑīÐµ":773,"ÑĤÐ¸Ð²":774,"Ð¾Ð´Ñĥ":775,"Ð¼Ñĭ":776,"ÐºÐ¾Ð¹":777,"ÑĢÐ¾Ð²Ð°":778,"ĠÐ¿Ð¾ÑĤ":779,"ĠÐŀÑĤÐ²ÐµÑĤ":780,"ÑħÐ":781,"ĠÑĪ":782,"¾ÑĩÐ":783,"ÑģÐºÐ°":784,"ĠÑģÐ»":785,"ÑĢÐ°Ð½":786,"in":787,"ĠÑĢ":788,"))":789,"ĠÐ´Ð¾Ð»":790,"ĠÐ³Ð¾":791,"Ð½ÑĥÑİ":792,"¸ÑĤÑģÑı":793,"Ð»ÐµÐ´":794,"Ð¶Ð¸":795,"ĠÐ±ÐµÐ·":796,"Ð·Ð¸":797,"ĠÐµÑģÑĤÑĮ":798,"Ġ8":799,"ĠÐ§":800,"ĠÐ¸Ñħ":801,"ÑİÑ":802,"ĠÑĦ":803,"Ð±Ð¸":804,"ÑģÑĤÐ²ÐµÐ½":805,"Ð¾Ð»Ð¸":806,"**":807,"ĠÐ¾Ð¿":808,"Ð´Ð¾":809,"ĠÐ¾Ð½Ð°":810,"Ġ19":811,"ĠÐ±ÑĥÐ´ÐµÑĤ":812,"ĠÑģÐ¿Ð":813,"ĠÐ¿Ð°":814,"Ð¾Ð²Ð°ÑĤÑĮ":815,"ÑİÑĤ":816,"ĠÐ¼ÐµÑģ":817,"ĠÐ¾Ð½Ð¸":818,"ĠÑĪÐ":819,"Ġ20":820,"Ð¼Ñĥ":821,"Ð¾Ð½Ðµ":822,"Ð²ÑĪÐ":823,"ĠÐ¢Ð":824,"Ð²Ð»Ñı":825,"Ð±Ñĭ":826,"Ð¼Ñı":827,"ÑĤÐ¾Ñı":828,"Ð¾Ð´Ðµ":829,"ĠÑģÐ»Ñĥ":830,"ĠÑĩÑ":831,"ĠÑĩÑĤ":832,"ĠÐ½Ñĥ":833,"ĠÐ¾ÑģÑĤÐ°":834,"Ð½Ð´Ð":835,"ĠÐ½Ð°Ñģ":836,"¾ÑĪ":837,"ÑģÐºÐ¾Ð¹":838,"ÑģÑĤÐ¸":839,"ĠÐĿÐ°":840,"Ð»Ð¾Ð²Ðµ":841,"ĠÐ´Ñĥ":842,"´Ð":843,"Ð½ÑĮ":844,"Ð»ÐµÐ¹":845,"ĠÐ¿Ð¾Ð»Ñĥ":846,"ÑĤÐµÑĢ":847,"Ð½Ðº":848,"ĠÑĩÐµÐ¼":849,"Ð¼Ð¾ÑĤ":850,"on":851,"Ġ9":852,"Ð±Ñĥ":853,"ÑĬ":854,"ÑĤÐºÐ":855,"ĠÐ³Ð¾Ð´Ð°":856,"Ð¾Ð¼Ð°":857,"¸Ð½Ð°":858,"ĠÐºÐ¾Ð³Ð´Ð°":859,"ĠÐ»Ðµ":860,"¸Ð³":861,"ĠÐµÑīÐµ":862,"ÑĩÐ¸ÑĤÐ°":863,"ĠÐ¿ÐµÑĢ":864,"¾Ñĩ":865,"Ð¾Ð²Ñĭ":866,"ĠÐ¿ÑĢÐ°":867,"Ġ10":868,"ÐºÐ¸Ð":869,"µÐ»":870,"ĠÑĢÐ":871,"ĠÐ¾Ðº":872,"¾Ñİ":873,"ÐĹÐ°":874,"¾ÑģÑĤÐ°":875,"ĠÐ¼Ð¾Ð³":876,"ÑĢÐ¸Ð¸":877,"ÑĨÐ¸Ð¸":878,"ĠÐ¼Ñĥ":879,"ĠÑĩÐµÐ»Ð¾Ð²Ðµ":880,"ÑģÐ»Ð¸":881,"ÐºÐ¸Ðµ":882,"ĠÐ½ÐµÑĤ":883,"ĠÑģÑĤÑĢÐ°":884,"Ñį":885,"ĠÐ³Ð»Ð°":886,"Ð±Ð°":887,"ÑĥÑģÑĤÑĮ":888,").":889,"ÑģÑĤÐ²Ð°":890,"Ð¿Ð¾Ð»":891,"µÑĨ":892,"ĠÐĿÐ¾":893,"ÑģÐºÐ¾Ð³Ð¾":894,"¸ÑĨ":895,"Ð½Ð¸Ðº":896,"ĠÐ½":897,"Ð¸Ð¼":898,"Ð±Ð¾ÑĤÐ°":899,"ĠÑĩÑĤÐ¾Ð±Ñĭ":900,"Ð¾Ð²Ð¾":901,"ĠÐ²Ð·":902,"Ð½ÐµÐ":903,"ĠÑģÐ¿":904,"ÑĢÐµÑģ":905,"ÑĨ":906,"ĠÑģÐ¸":907,"¾ÑĢÐ¼Ð":908,"ĠÐĿ":909,"Ð½Ð¸Ñİ":910,"ĠÐ±Ð°":911,"Ð½ÐµÐµ":912,"¸ÑĪ":913,"°Ð»Ð¸":914,"ÑıÑĤÑĮ":915,"¾ÑĨÐ":916,"¸ÑĪÑĮ":917,"ĠÐ¼Ð¾Ð¶Ð½Ð¾":918,"Ð¿ÐµÑĢ":919,"ĠÑĥÑģ":920,"ĠÐĳÐ":921,"ĠÑĤÐ°Ð¼":922,"Ð¾ÑĩÐ":923,"ĠÐ¥":924,"ĠÐłÐ":925,"ÐºÑĢÐ°":926,"Ġn":927,"ÑģÑĤÐ²Ð¾":928,"Ð°Ð²":929,"ÑĢÐ¾Ð´":930,"ĠÑĩÐ°Ñģ":931,"ĠÐ¿Ñĥ":932,"ÑģÐºÐ¸Ð¹":933,"ÐŁÐ":934,"ĠÐ¿Ð¸":935,"ĠÐ²ÑģÐ":936,"ĠÐ¼Ð¾Ð¶ÐµÑĤ":937,"ÑĥÑĪ":938,"or":939,"ĠÐ¿ÑĢÐ¾ÑģÑĤÐ¾":940,"ĠÑģÐ¾":941,"ĠÐºÐ":942,"ÐºÐ¾Ð½":943,"ÐµÐµ":944,"ĠÑģÐ°":945,"Ð½ÐµÐ¹":946,"ĠÐ³Ð¾Ð»":947,"Ð¼ÐµÐ½ÑĤÐ°":948,"ĠÑįÑĤÐ¾Ð¼":949,"Ð¼Ð¾":950,"ĠÐµÐµ":951,"ĠÐ²ÑĢÐµÐ¼Ñı":952,"ĠÐ¿Ð¾ÐºÐ°":953,"ĠÐ¤":954,"ÑĮÐ":955,"at":956,"°ÑĪ":957,"ÑĥÐ´Ð°":958,"ÑĤÐµÐ»ÑĮÐ½Ð¾":959,"ÐºÑ":960,"ÐºÑĤ":961,"ĠÐ¶Ð¸":962,"ĠÐ¾ÑĩÐ":963,"ĠÐ´Ð°Ð¶Ðµ":964,"Ð²Ñĥ":965,"ĊĠĠĠ":966,"ĠÐ²ÐµÑĢ":967,"ÐµÐ¼Ñĥ":968,"Ð»ÐµÐ½Ð¸Ñı":969,"°Ñı":970,"ÑĦ":971,"¸ÑĤÑĮÑģÑı":972,"st":973,"Ð¶Ð½Ð¾":974,"ĠÑĤÐ":975,"Ð¾ÑĢÐ":976,"en":977,"ĠÐĿÐµ":978,"Ð¾Ð³Ð¸":979,"ĠÐ²Ð¾ÑĤ":980,"Ð½Ð¸ÐµÐ¼":981,"ĠÐ¾ÑĩÐµÐ½ÑĮ":982,"ÑģÑĳ":983,"Ð¾Ð»Ðµ":984,"ĠÐ´ÑĢÑĥÐ³":985,"\",":986,"ĠÐ³Ð´Ðµ":987,"ÑĢÐµÑĤ":988,"ÑĤÐ¾ÑĢÐ°":989,"ÑĢÐµÐ´":990,"Ð¿ÑĢÐ¸":991,"Ð½ÑĭÐ¼Ð¸":992,"Ð²Ð°ÐµÑĤ":993,"ÑĭÐ¹":994,"Â».":995,"ĠÐłÐ¾Ñģ":996,"ĠÐ¿ÑĢÐ¾Ð":997,"ÑĪÐ¸":998,"¾ÑĦÐ":999,"ÐĶÐ":1000,"Ġ11":1001,"ĠÐ¿Ð¾Ð·":1002,"ĠÐ¿Ð»Ð°":1003,"ĠÐ¶":1004,"Ð¾Ð¿ÑĢÐ¾Ñģ":1005,"ÑĨÐ°":1006,"¶Ðµ":1007,"ĠÐ¶Ð¸Ð·":1008,"ĠÑĢÐµÑĪÐ":1009,"ÐºÐ°Ñı":1010,"Ð¸Ð³":1011,"Ġ12":1012,"ĠÑĩÑĥ":1013,"ĠÑģÐº":1014,"ĠÐ°Ð²":1015,"ĠÐºÑĢÐ°":1016,"ĊĠĠĠĠĠĠĠĠ":1017,"ÑģÑĤÑĢÐµ":1018,"µÑģÑ":1019,"µÑģÑĤ":1020,"Ð¼Ð¾Ð¶":1021,"ĠÐĽÐ":1022,"co":1023,"Ð²Ð¾":1024,"ĠÐ»ÐµÑĤ":1025,"Ð±Ð¾ÑĤ":1026,"ĊĠĠĠĠ":1027,"ÑĢÐ¾Ð¼":1028,"ĠÐºÑĤÐ¾":1029,"ĠÐºÐ¾ÑĤÐ¾ÑĢ":1030,"ĠÐ±ÑĭÑĤÑĮ":1031,"ÑīÐµÑģ":1032,"de":1033,"Ð¾Ð³ÑĢÐ°":1034,"ĠÐ±ÑĭÐ»Ð°":1035,"Ð¾Ð²ÐµÑĢ":1036,"ĠÑģÐºÐ°Ð·Ð°":1037,"ÑģÑĥ":1038,"ĠÑģÐ´Ðµ":1039,"ĠÑĤÐ¾Ð³Ð¾":1040,"Ð²ÐµÑĤ":1041,"ĠÐ½Ð°ÑĩÐ°":1042,"ÐĿÐµ":1043,"ĠÐ±ÑĭÐ»Ð¸":1044,"ĠÐ¸ÑģÐ¿":1045,"ĠÑģÐ¾Ð±":1046,"ĠÐºÐ°Ð¶":1047,"ĠÑĢÐ°Ð±Ð¾ÑĤÐ°":1048,"re":1049,"ÑģÐ¸Ð¸":1050,"ĠÑģÐ²Ð¾Ðµ":1051,"ÑĭÑħ":1052,"ÑģÑĤÑĥ":1053,"ĠÑĤÐ¾Ð¼":1054,"Ð¶ÐµÐ½":1055,"°ÑİÑīÐ":1056,"ĠÐ²Ð¾":1057,"ĠÐ¿Ð¾ÑģÐ»Ðµ":1058,"ĠÑĩÐ¸":1059,"Ð¶Ð°":1060,"³Ð°":1061,"¸Ðº":1062,"Ð²Ð½Ð¾":1063,"µÑģÑĮ":1064,"ÐµÑĪÑĮ":1065,"ĠÐ¸Ð¼":1066,"Ð½Ð¸Ð¼Ð°":1067,"Â»,":1068,"le":1069,"ÑĮÑİ":1070,"ĤÑĢÐ°":1071,"ÑĤÑĢÐ°":1072,"µÑĤÐµ":1073,"ÑĢÑĥÐ³":1074,"ÐĿÐ°":1075,"ĠÐ»ÑİÐ±":1076,"°ÑĨÐ¸Ð¸":1077,"ĠÐ³Ð¾Ð²Ð":1078,"ĠÐ²Ð°":1079,"Ð½Ð¸ÐºÐ°":1080,"ĠÐ»Ñĥ":1081,"¾ÑģÑĤÐ¸":1082,"ÑĳÑ":1083,"ĠÐĵÐ":1084,"ĠÐŀÐ½":1085,"ÑĩÐµÑģÐºÐ¸":1086,"ĠÑįÑĤÐ¾Ð³Ð¾":1087,"ĠÐ±Ð¾Ð»Ð":1088,"Ð¾Ð²Ð¸":1089,"ÑĨÐµ":1090,"¾ÑĤÐµ":1091,"ĠÐ¿Ð¾Ð¼Ð":1092,"Ð½ÐµÑĤ":1093,"ĠÐ²Ð¾Ñģ":1094,"Ð¿Ñĥ":1095,"Ġ15":1096,"Ð»Ð°ÑĤÑĮ":1097,"ĠÐŃÑĤÐ¾":1098,"ÑģÑĭ":1099,"ĠÐºÐ¾ÑĤÐ¾ÑĢÑĭÐ":1100,"ĠÐºÐ¾ÑĤÐ¾ÑĢÑĭÐµ":1101,"Ð¾Ð¶Ð¸":1102,"ĠÑĤÐ¾Ð¶Ðµ":1103,"\".":1104,"°Ð´":1105,"ÑĢÐ¶Ð":1106,"Ð¾Ð¾Ð±ÑīÐµ":1107,"Ð»ÑĮÐ½Ð¾":1108,"ĠÐ¿Ð¾Ð½":1109,"Ð½ÑĥÑ":1110,"Ð½ÑĥÑĤ":1111,"Ð»Ð°Ñģ":1112,"ĠÐ¾ÑĤÐº":1113,"ĠÐĶÐ°":1114,"ÑĩÐµÑģÑĤÐ²Ð":1115,"ÑİÑīÐ":1116,"ĠÐ´ÐµÐ½ÑĮ":1117,"ÑĩÐµÐ³Ð¾":1118,"ÑĢÑıÐ´":1119,"ĠÐ¸Ð³":1120,"Ð¨":1121,"ĠÐ±Ðµ":1122,"ĠÐ±Ð¾Ð»ÑĮÑĪÐµ":1123,"ÑĭÐ":1124,"ĠÑģÐµÐ±Ñı":1125,"ĠÐ¾Ð±ÑĬ":1126,"ÑĢÐ°ÑĤÑĮ":1127,"µÐ¹ÑĩÐ°Ñģ":1128,"ÑĭÐµ":1129,"ÑĢÐ´":1130,"ĠÑįÑĤÐ¸":1131,"Ð²Ð°Ð»":1132,"Ð²Ð°Ñı":1133,"Ġ13":1134,"ĠÐ³Ð¾Ð´Ñĥ":1135,"Ð½ÑĥÐ»":1136,"Ð´ÑĥÑĤ":1137,"an":1138,"ĠÐ½Ð¾Ð²":1139,"ÑĢÐµÐ·":1140,"ĠÐ¾Ð±Ð":1141,"ĠÐ»":1142,"ĠÐ½Ð°ÑĪÐ":1143,"Ð½ÐºÐ°":1144,"Ð½Ð¾Ð²Ð°":1145,"ĠÐ²ÑģÑĳ":1146,"ÑĳÑĤ":1147,"ĠÑĩÐ":1148,"Ð²Ð°ÑİÑĤ":1149,"Ð½Ð³":1150,"ĠÑĤÐµÐ¼":1151,"Ð¾Ð´Ð¸Ð½":1152,"Ð»ÐµÐ½Ð¸Ðµ":1153,"µÑĪ":1154,"ÑĮÑı":1155,"ĠÐ½Ð¸Ñħ":1156,"Ðĸ":1157,"ĠÑĤÑĥÑĤ":1158,"ÑģÐºÐ¸Ñħ":1159,"ar":1160,"Ð³Ñĥ":1161,"ĠÐºÐ¾ÑĤÐ¾ÑĢÑĭÐ¹":1162,"ĠÐ¾Ð¿Ð":1163,"ĠÐ½Ð°Ð´Ð¾":1164,"ĠÑģÐ»ÑĥÑĩÐ°":1165,"ÑģÑĤÑĢ":1166,"ÑĤÐµÐ¹":1167,"al":1168,"ĠÑĤÐµÐ±Ñı":1169,"Ð°ÑĢ":1170,"ĤÐ¾Ð²":1171,"ÑĤÐ¾Ð²":1172,"Ġ14":1173,"Ð´ÐµÐ½":1174,"ĠÐ´Ð°Ð½":1175,"ÑĤÐ¸Ð»":1176,"Ð¹ÑĤÐµ":1177,"ĠÑģÐ»Ðµ":1178,"Ġ18":1179,"Ð±Ð»Ð¸":1180,"Ð°Ð»ÑĮ":1181,"ĠÐ³ÑĢÑĥ":1182,"ĠÐ¿Ð»Ð":1183,"Ð·Ð½Ð°":1184,"°ÑĤÑĮÑģÑı":1185,"ĠÐ³ÑĢÐ°":1186,"Ð¾ÐºÑĥ":1187,"ĠÐĹÐ°":1188,"ĠÐ½Ð¸Ðº":1189,"µÑģÑĤÐ¸":1190,"Ġ201":1191,"ĠÐµÐ¼Ñĥ":1192,"µÑĪÑĮ":1193,"ÑĩÐµÐ½":1194,"ĠÐºÐ¸":1195,"ÐºÐ¶Ðµ":1196,"ĠÐ·Ð°Ð¿":1197,"ĠÑģÐ¾Ñģ":1198,"ÑĢÐ¾ÑģÐ":1199,"¾ÑĢÐ¾ÑĪÐ":1200,"ÑĢÑĤÐ¸":1201,"ĠÑĤÑĥ":1202,"Ð¾Ð¼Ðµ":1203,"ÑĢÐ¼Ð":1204,"ÑĤÐ¸ÑĤÑĮ":1205,"ĠÑģÐ²Ð¾Ð":1206,"ÑģÑĤÑĢÐ°":1207,"ĠÐ±Ð¾Ð»ÐµÐµ":1208,"Ð·Ñĥ":1209,"ÑĩÑĥ":1210,"Ð¢Ð":1211,"ĠÐ²Ð¾Ð¿ÑĢÐ¾Ñģ":1212,"ĠÐ¾Ð´Ð¸Ð½":1213,"ĠÑĢÐ°Ð±Ð¾ÑĤ":1214,"Ð³Ð»Ñı":1215,"ĠÑĥÐ´Ð°":1216,"īÑĳ":1217,"¸Ð»ÑĮ":1218,"Ð¾Ð·Ð":1219,"¾ÑĤÐ²Ð":1220,"ĠÐ°Ðº":1221,"¸Ð¼Ðµ":1222,"ÑĩÐ¸ÑĤ":1223,"ÑĤÐº":1224,"Ð²Ð¾Ð´":1225,"ĠÐ²Ñģ":1226,"Ð»ÐµÐº":1227,"ÑħÐ¾Ð´Ð":1228,"Ð´ÐµÐ¹":1229,"ĠÐ½Ð°Ð¿":1230,"ĠÑĤÑĢÐµ":1231,"ĠÐļÐ°":1232,"ĠÐ´Ð¸":1233,"ÑħÐ¾Ð´":1234,"ĠÐ½ÐµÐ³Ð¾":1235,"ĠÐ³Ð¾Ñģ":1236,"ÑĢÐµÐ½":1237,"ĠÐŁÑĢÐ¸":1238,"Ġ16":1239,"¸ÑĨÐ°":1240,"ĠÑĨÐµ":1241,"),":1242,"Ð¾ÑĤÐ²Ð":1243,"ĠÐ³Ð¾ÑĢ":1244,"Ð²Ð¸Ð»":1245,"it":1246,"Ð¸Ð¼Ðµ":1247,"ÑĢÑĥÐ´":1248,"Ð½ÑĥÑĤÑĮ":1249,"ĠÑģÐ¾Ð²":1250,"ĠÑģÑĤÐ¾ÑĢ":1251,"ĠÐŁÐ¾":1252,"µÐ½Ð½Ð¾":1253,"ĠÑģÐ¾Ð·":1254,"Ð¿ÐµÑĢÑĮ":1255,"ĠÐ¿ÑĢÐ¾Ð±":1256,"ĠÐ¿ÑĢÐ¾Ð¸Ð·":1257,"Ð¶Ð´Ñĥ":1258,"ĠÐ¿Ð°ÑĢ":1259,"ĠÑģÐ¾Ð¾Ð±":1260,"ĠÑħÐ¾ÑĢÐ¾ÑĪÐ":1261,"ÐłÐ":1262,"µÑİ":1263,"°ÑĤÑĭ":1264,"ÑĤÐ¸Ð":1265,"ĠÐ¸Ð¼Ðµ":1266,"ĠÐĴÑĭ":1267,"ÐºÐ°Ñħ":1268,"ĠÐ»Ð°":1269,"ĠÐ¿Ð¾Ð¿":1270,"µÐº":1271,"ĠÑįÑĤÐ¾Ñ":1272,"ĠÑįÑĤÐ¾ÑĤ":1273,"ĠÐļÐ°Ðº":1274,"ÑĤÐµÐ»Ñı":1275,"se":1276,"ĠÐ¾ÑĤÐ²Ð":1277,"ÐµÑĤÐµ":1278,"ÑĤÐµÑĢÐµÑģ":1279,"ĠÑĤÐµÑħ":1280,"ĠÐ¿Ð¾ÑģÐ»ÐµÐ´":1281,"ĠÐ³Ð°":1282,"ĠÐ²ÑģÐµÑħ":1283,"ÐļÐ°Ðº":1284,"ĠÐ¼Ð¾Ð»":1285,"ĠÐ·Ð½Ð":1286,"ĠÐ·Ð°Ðº":1287,"ÑĨÐ¸":1288,"ĠÐ¿Ðµ":1289,"µÐ¼Ñĥ":1290,"Ð²Ð°Ð»Ð¸":1291,"Ð³Ð¾Ð´":1292,"Ð½Ð¸ÐºÐ¾Ð²":1293,"ĠÐ»ÑĥÑĩ":1294,"ĠÐĹ":1295,"ÑĤÐ¾Ñĩ":1296,"ĠÑģÐµÐ±Ðµ":1297,"ĠÐ²Ð¸Ð´Ðµ":1298,"Ġ17":1299,"ĠÐ¿Ð¾ÑĤÐ¾Ð¼":1300,"ĠÐ¿Ð¾Ð¼":1301,"ĠÑĩÐµÐ»Ð¾Ð²ÐµÐº":1302,"ĠÐ¾ÑĢÐ":1303,"Ð¡Ð":1304,"Ð¶Ñĥ":1305,"ÑĤÐ¸Ñı":1306,"ro":1307,"ĠÑĩÐµÑĢÐµÐ·":1308,"µÐ´":1309,"ĠÐ³Ð¾Ð´":1310,"¸ÑĪÐ":1311,"¾Ñī":1312,"µÑĢÐ°":1313,"ĠÐ·Ð´Ð":1314,"ĠÐ²ÑģÐµÐ³Ð¾":1315,"Ð¼ÐµÐ½Ð½Ð¾":1316,"ÑĩÐµÐ¼Ñĥ":1317,"ÑīÐ¸":1318,"ĠÑĩÐ¸Ñģ":1319,"ĠÑĤÐ°ÐºÐ¶Ðµ":1320,"ÑĤÐµÐ»Ð¸":1321,"ĠÑģÐµÐ¹ÑĩÐ°Ñģ":1322,"ĠÐ´ÐµÐ¹":1323,"Ð½Ð¸ÐºÐ¸":1324,"ÐºÐ°Ð¼Ð¸":1325,"ÐµÐ²":1326,"ÑĩÑĮ":1327,"Ð·Ð°ÑĤÑĮ":1328,"Ð³Ð´Ð°":1329,"ĠÐ¿ÑĢÐµÐ´ÑģÑĤÐ°":1330,"ĠÐ´ÑĢÑĥÐ³Ð":1331,"ĠÐ²Ð°Ñģ":1332,"ĊĠĠĠĠĠĠĠ":1333,"ĠÐ½Ð°Ñħ":1334,"ĠÑĤÐµÐ±Ðµ":1335,"ÑĢÐ¿":1336,"ÑĢÐ°Ñ":1337,"Ð¾Ð½Ñĭ":1338,"ĠÐ¾ÑĤÐ´Ð":1339,"Ð¾Ð¼Ð¸":1340,"Ġt":1341,"ĠÑģÐºÐ°Ð·Ð°Ð»":1342,"ĠÐ¨":1343,"Ð¼ÐµÐ½Ð¸":1344,"¾Ñį":1345,"¸Ð°Ð»ÑĮ":1346,"¸ÑĤÑĥ":1347,"ÑĢÐ¸Ñı":1348,"µÑīÐ":1349,"ÑĩÐ°ÑģÑĤ":1350,"ÑģÐºÐ¾Ð»ÑĮÐºÐ¾":1351,"ĠÐłÐ¾ÑģÑģÐ¸Ð¸":1352,"ĤÑĢ":1353,"ÑĤÑĢ":1354,"Ġ:":1355,"ÑĢÐ°ÑĤ":1356,"ÑĤÐµÐ»ÐµÐ¹":1357,"ĠÐ±ÐµÑģ":1358,"Ġc":1359,"ÐĴÐ":1360,"Ð½Ð¸ÑĨ":1361,"ĠÐ¿ÑĢÐ°Ð²Ð¸":1362,"ĠÐ¿Ð¾ÑĢ":1363,"Ð¼ÐµÑĤ":1364,"Ð´ÐµÐ½Ð¸Ñı":1365,"ĠÐ½Ð¸ÑĩÐµÐ³Ð¾":1366,"ÐºÐ¾Ð³Ð¾":1367,"ĠÐ¿Ð¾Ð½Ð¸":1368,"ĠÐ²Ð¾Ð¾Ð±ÑīÐµ":1369,"ĠÐ²Ð¾Ð·Ð¼Ð¾Ð¶":1370,"ĠS":1371,"Ð»Ð¾Ð²":1372,"ĠÐŁÑĥÑģÑĤÑĮ":1373,"ĠÐ´Ð¾ÑĢ":1374,"ÐļÐ¾Ð¼":1375,"ÑĢÐ¸Ð¹":1376,"Ð¿Ð¾ÑĢ":1377,"ÑģÐºÐ¸Ð":1378,"ĠÐķÑģÐ»Ð¸":1379,"ĠÑģÑĤÐµ":1380,"ĠÐ¿ÑĢÐ°Ð²":1381,"ÑģÐºÐ¸Ðµ":1382,"ĠÑģÐ²Ñı":1383,"¾ÑģÑĤÑĮ":1384,"ĠÐ¼Ð½":1385,"ĠÑģÐ²Ð":1386,"ÐºÐ¸Ð¼":1387,"ĠÐ´ÐµÐ»Ð°":1388,"Ð²Ð¸ÑĤÑĮ":1389,"Ð¾ÑĤÑı":1390,"Ð¾Ð³Ð°":1391,"ĠÐ½ÑĥÐ¶Ð½Ð¾":1392,"ĠÐµÑīÑĳ":1393,"ÑĢÐ°Ð·Ñĥ":1394,"Ð¼ÐµÑģ":1395,"ÐĿÑĥ":1396,"ÐĶÐ°":1397,"ĠÑĢÐ¾Ñģ":1398,"ÑĨÐ¸Ñı":1399,"ÐľÐ":1400,"ÑĪÐ°":1401,"Ġp":1402,"ĠÑįÐº":1403,"Ð¿Ð¸ÑģÐ°":1404,"ĤÐ¾Ð¼":1405,"ÑĤÐ¾Ð¼":1406,"Ð¿ÑĢÐµ":1407,"ÑıÑģ":1408,"µÑĨÐ":1409,"ÑĭÑĤÐ°":1410,"!!":1411,"ĠÐ¼Ð½Ð¾Ð³Ð¾":1412,"ĠÑĤÐ°ÐºÐ¾Ð¹":1413,"ĠÐ¶ÐµÐ½":1414,"°ÑĪÐ¸":1415,"Ð¾Ð»Ð°":1416,"ĠÐ½Ð°Ð´":1417,"Ð´Ð°ÑĤÑĮ":1418,"Ð»Ð¾Ð¼":1419,"¸Ð»ÑģÑı":1420,"Ð½Ñİ":1421,"Ð²Ð°ÐµÑĤÑģÑı":1422,"Ð½Ð¸ÑĤÑĮ":1423,"ĠÐ½Ð°Ð¼":1424,"ÐĿÐ¾":1425,"Ð´Ñı":1426,"ÐµÐ·":1427,"ĠÑģÐ¾ÑģÑĤÐ°":1428,"Ð½Ð¾Ð²Ð":1429,"ĠÐ¿ÑĢÐ¾Ð±Ð»Ðµ":1430,"Ð½Ð¾Ð¼Ñĥ":1431,"ĠÐ´Ð²Ð°":1432,"ĠÐ²Ð°Ð¼":1433,"ÑħÐ°":1434,"ÑĥÑĢ":1435,"ĠÐ´Ð¾Ð»Ð¶":1436,"°ÑīÐ":1437,"ĠÐ¾Ð±ÑīÐ":1438,"¾ÑħÐ":1439,"Ð±Ð¾ÑĢ":1440,"ĠÑģÐ»Ð¾Ð²Ð°":1441,"ÐµÐ¹":1442,"Ð¼Ð°Ñİ":1443,"ÐļÐ¾Ð¼Ð¼ÐµÐ½ÑĤÐ°":1444,"ĠÐ¾Ð³":1445,"ÑĢÐ¾Ð²Ð°ÑĤÑĮ":1446,"ĠÐºÐ¾Ð»":1447,"ĠÑģÐºÐ¾":1448,"ĠÐ¢Ð°Ðº":1449,"ÑģÐºÐ¾Ð¼":1450,"ÑĤÐºÐ¸":1451,"ÑĢÐ³":1452,"Ð¾Ð½ÐµÑĩÐ½Ð¾":1453,"ÑīÐµÑģÑĤÐ²Ð":1454,"ÑĳÐ½":1455,"ĤÑı":1456,"ÑĤÑı":1457,"ĠÐ¾Ð±Ð»Ð°":1458,"ĠÐĿÑĥ":1459,"ĠÐ³Ð¾Ð²Ð¾ÑĢÐ":1460,"ht":1461,"ÑģÐ¸Ð¹":1462,"Ð²Ð¾Ð¹":1463,"Ð¾Ð¶Ð°":1464,"¾ÑĪÐµ":1465,"Ð¶Ð´Ð°":1466,"Ð¾Ð²Ð¾ÑĢÐ¸":1467,"//":1468,"ĠÑĥÐ¿":1469,"Ð°Ð´":1470,"¸ÑĨÐµ":1471,"ĠÑģÑĩÐ¸ÑĤÐ°":1472,"ÑģÐ¾Ð²":1473,"ĠÐ¿ÑĢÐ¾Ð´":1474,"ic":1475,"¾ÑīÐ":1476,"Ð´Ð¸Ð½":1477,"ĠÐ¼ÐµÐ¶Ð´Ñĥ":1478,"ĠÐ§Ð":1479,"¾Ñı":1480,"ÑģÐºÐ°Ñı":1481,"ÐŁÑĥÑģÑĤÑĮ":1482,"ĠÐ²Ð¾Ð¹":1483,"ÑĭÐ¼":1484,"Ð½ÐµÑģ":1485,"Ġs":1486,"ÐºÐ¸Ð¹":1487,"Ġf":1488,"ÑĢÐµÐ²":1489,"Ð¦":1490,"ÑĥÑģÑĤÐ¸":1491,"ĠÐ¿Ð¾Ð²":1492,"ĠÐ¶Ð¸Ð·Ð½Ð¸":1493,"ĠÑģÐ¾Ð¾Ð±ÑīÐ":1494,"Ð´Ð½Ð¾":1495,"ĠÐ²ÑģÐµÐ³Ð´Ð°":1496,"ĠÐ¾ÑĤÐ²Ðµ":1497,"ĠÐ¾ÑĤÐºÑĢÑĭ":1498,"¸ÑħÐ":1499,"me":1500,"Ð²ÑĭÐ¹":1501,"ĠÑĢÐ°ÑģÑģ":1502,"Ġi":1503,"Ð½ÐµÐ¼":1504,"ĠÐ½ÐµÐ¼":1505,"ĠÐ¾ÐºÐ°":1506,"ĠÐ¾Ð±ÑĢÐ°Ð·":1507,"ĠÐ¾ÑĢÐ³Ð°":1508,"¾ÑĩÐµ":1509,"ĠÐ²ÑģÑĤÑĢÐµ":1510,"ĠÑģÐµÑĢ":1511,"ĠÐ±Ð»Ð¸":1512,"Ð¾Ð¸ÑĤ":1513,"ĠÑİ":1514,"ĠÑģÐ¾Ð±Ð":1515,"Ð³ÑĢÐ°":1516,"Ð°Ð½":1517,"ion":1518,"Ð±ÑĢÑı":1519,"ĠÑįÑĤÐ¾Ð¹":1520,"ĠÐ¿Ð¾ÑģÑĤÐ°":1521,"ĠÐºÑĢÑĥ":1522,"ĠÑģÐ²Ð¾Ð¸":1523,"¾ÑĢÑĥ":1524,"ĠÐ»ÑİÐ´ÐµÐ¹":1525,"ĠÐ¾ÑĤÐ¿":1526,"¾ÑĢÐ°":1527,"ĠÐ·Ð°Ñı":1528,"¾ÑĤÑĮ":1529,"ĠÐ¿Ð¾Ñĩ":1530,"¸ÑģÑĤÐµ":1531,"Ð¾Ð²ÐµÑĤ":1532,"ĠÑģÐ¼Ð¾ÑĤ":1533,"ut":1534,"ĠÐľÐ°":1535,"ÑĩÐµÑĤ":1536,"ÑĢÐ±":1537,"ĠÐ»Ð¸ÑĪÑĮ":1538,"ĠÐ¿ÑĢÐ¾ÑĤÐ¸Ð²":1539,"ÑģÐµÐ¼":1540,"ĠÐ½ÐµÑģÐºÐ¾Ð»ÑĮÐºÐ¾":1541,"(-":1542,"Ð´ÐµÑĢÐ¶Ð":1543,"ĠÐ¸Ð½ÑĤÐµÑĢÐµÑģ":1544,"20":1545,"°ÑĨÐ¸Ñı":1546,"ĠÑģÑĤÑĢ":1547,"ÑĩÐ¸ÑĤÑĮ":1548,"ÑĢÐ°Ð²Ð¸":1549,"ÑĩÐµÐ½Ð¸Ñı":1550,"code":1551,"ÐºÐ»Ñİ":1552,"ÑĢÐ¾Ð±":1553,"ÐļÐ":1554,"Ð½ÐµÐ½Ð¸Ñı":1555,"ĠÐ²Ð¾Ð»":1556,"ĠÑĦÑĥ":1557,"ct":1558,"ĠÑĥÑģÑĤÐ°":1559,"µÑĦ":1560,"ĠÐ´ÐµÐ¹ÑģÑĤÐ²Ð":1561,"ÑĩÐ¸Ð½Ð°":1562,"ĠA":1563,"ĠÑĤÐµÐ¿ÐµÑĢÑĮ":1564,"ĠÐ¿Ð¾ÑĤÐ¾Ð¼Ñĥ":1565,"ÑĩÐµÐ½Ð¸Ðµ":1566,"Ð»ÐµÑĤ":1567,"ĠÐ¾Ð´Ð½Ð°":1568,"ÐºÐ°Ð½":1569,"ÑĤÐ¸ÑĩÐµÑģ":1570,"ÑĤÐ¾ÑĢÐ°Ñı":1571,"ĠÑĥÐ³":1572,"ÑĳÐ¼":1573,"Ð´Ð¾Ð¼":1574,"ĠÐ²Ð¾Ð":1575,"Ġ200":1576,"ĠÐ¾Ð±ÑĢÐ°":1577,"ĠÑģÐ´ÐµÐ»Ð°":1578,"¸ÑĦ":1579,"ĠÐ»ÑİÐ´Ð¸":1580,"ĠÑĢÐ°ÑģÑģÐºÐ°":1581,"ĠÐºÑĢÐ¸":1582,"ĠÐ¸ÑģÑĤÐ¾":1583,"°Ð½Ð°":1584,"ĠÐ³Ñĥ":1585,"ĠÐ·Ð°ÐºÐ¾Ð½":1586,"ÐļÐ¾Ð¼Ð¼ÐµÐ½ÑĤÐ°ÑĢÐ¸Ð¸":1587,"ĠÐ¾ÑĤÐ¼Ð":1588,"ÑģÑĤÐ²Ñĥ":1589,"¸ÑģÐº":1590,"Ð´Ð¾Ð²":1591,"ÑģÑĤÑĮ":1592,"ÐŁÐ¾":1593,"Ġ21":1594,"Ð²ÑĢÐ°":1595,"Ð»ÑĮÑĤÐ°":1596,"ĠÑĤÐ²":1597,"ĠÐ´Ð¾ÑģÑĤÐ°":1598,"Ð°Ð»":1599,"¸Ð±":1600,"ĠÐ»ÑĥÑĩÑĪÐµ":1601,"Ð¹ÑĤÐ¸":1602,"°ÑĢÐ°":1603,"et":1604,"¸ÑĤÐµ":1605,"ĠC":1606,"ĠÑĤÑĢÐ°":1607,"ÑİÑĤÑģÑı":1608,"ĠÐ·Ð°Ð¼Ðµ":1609,"ĠÐ½ÐµÐ¹":1610,"Ð¡Ð¡":1611,"Ġ25":1612,"ss":1613,"ĠÑģÐ¾Ð³":1614,"ĠÑĤÐ¾Ñ":1615,"ĠÐŁÐ¾Ñģ":1616,"ÑĢÐµÑĤÑĮ":1617,"ĠÑĤÐ¾ÑĤ":1618,"ÑĥÐ´Ð°ÑĢ":1619,"ĠÐ¼Ð°Ñģ":1620,"ĠÑĩÐµÐ³Ð¾":1621,"Ð¾ÑĦÐ":1622,"¾ÑģÑ":1623,"¾ÑģÑĤ":1624,"ĠÐĸ":1625,"ÐŃÑĤÐ¾":1626,"ĠÐĴÑģÐµ":1627,"°Ð·":1628,"¸Ð½Ð":1629,"ÑģÑĤÑĭ":1630,"¸ÑĤÐ°":1631,"¾ÑįÑ":1632,"¾ÑįÑĤ":1633,"ru":1634,"ĠÑģÐ¸ÑģÑĤÐµ":1635,"ĠÐ§ÑĤÐ¾":1636,"Ð§ÑĤÐ¾":1637,"ĠÐ¿ÑĢÐ¾ÑĨÐ":1638,"Ð¾Ð²Ð°Ð»":1639,"Ð¸ÑĤ":1640,"ÑĦÐ¾ÑĢÐ¼Ð":1641,"ĠÑģÐ¼":1642,"ĠÐ±ÑĥÐ´ÑĥÑĤ":1643,"ĠÐºÐ¾Ð¼Ð¿Ð°":1644,"Ð²Ð»Ðµ":1645,"ÑĨÑĭ":1646,"ÑĢÐ³Ð":1647,"µÐ»ÑĮ":1648,"Ð¸ÑģÐº":1649,"ĠÐºÐ°ÐºÐ¾Ð¹":1650,"ĠÑģÐ²Ð¾Ñİ":1651,"ÑĨÐµÐ²":1652,"Ð½Ñ":1653,"ĠÐ·Ð´ÐµÑģÑĮ":1654,"ĠÐºÐ¾Ð¼Ð°":1655,"ĠÑģÐ¾Ð·Ð´Ð°":1656,"ĠI":1657,"ĠÑģÐ¿Ð°":1658,"ĠÑģÐ²Ðµ":1659,"ĠÑĤÐ¾Ð³Ð´Ð°":1660,"ĠÑģÐ²Ð¾ÐµÐ¹":1661,"ĠÐ²ÑĭÑģ":1662,"ĠÐ±Ð¾Ð»ÑĮÑĪÐ":1663,"ĠÑıÐ²Ð»Ñı":1664,"Ð½ÑĤ":1665,"ĠÐ¶Ð¸Ð·Ð½ÑĮ":1666,"ent":1667,"Ġ30":1668,"Ð¾Ð¿Ð°":1669,"¸ÑĢ":1670,"Ð½Ð¾ÑģÑĤÑĮÑİ":1671,"Ð½ÐµÐ½":1672,"ĠÐ¿ÑĢÐ¾ÑĪ":1673,"--":1674,"ĠÐ¿Ð¾Ñħ":1675,"ĠÑįÑĤÐ°":1676,"Ð±ÑĢÐ°":1677,"ĠÐ½ÐµÐ¿":1678,"ÑīÐµÑģÑĤÐ²":1679,"ÑĤÐ²ÐµÑĢÐ":1680,"ĠÐ¸ÑģÐº":1681,"ÐºÑĤÐ¸":1682,"ĠÑĤÑĢÐ¸":1683,"10":1684,"ĠÐ´ÐµÐ²":1685,"ĠÐ¿ÐµÑĢÐµÐ´":1686,"Ð¾Ð²Ð¾Ð¹":1687,"ÑĥÐ¼":1688,"ÑĢÐ´Ð":1689,"Ð½Ð¸Ð¼":1690,"Ð½ÑĥÐ»ÑģÑı":1691,"ÑĩÐµÑĢ":1692,"ÑıÐ»":1693,"ĠÐŀÐ½Ð°":1694,"ĠÐ¿ÑĢÑı":1695,"ĠÐ¾Ð±Ñĭ":1696,"ÑĤÐºÐ°":1697,"ĠÑĢÑĭ":1698,"Ġ22":1699,"¸ÐµÐ¹":1700,"Ð¾Ð³ÑĢÐ°Ð¼":1701,"ĠÐµÑĳ":1702,"¾ÑįÑĤÐ¾Ð¼Ñĥ":1703,"ĠÑħÑĥ":1704,"ĠÑħÐ¾ÑĤÐµ":1705,"ĠÐ²Ð¼ÐµÑģ":1706,"Ð»Ð¸Ð":1707,"Ð³Ðµ":1708,"ĠT":1709,"Ð¾Ð±Ðµ":1710,"ÑģÐ¸Ñı":1711,"ĠÑįÐ»Ðµ":1712,"ÑĢÐ¾Ð²Ð°Ð½":1713,"ĠÐ·Ð½Ð°Ñİ":1714,"ĠÐľÐ¾Ñģ":1715,"la":1716,"ÐºÐ»Ð°":1717,"Ð°Ð»Ð¸":1718,"ĠÐµÐ¹":1719,"Ð¾Ð½Ð°Ð»ÑĮ":1720,"ÐµÑħ":1721,"ĠÐ¿ÑĢÐ¾Ðµ":1722,"ĠÐ±ÑĥÐ´Ñĥ":1723,"ĠÐ¼ÐµÑĤ":1724,"ĠÑģÐ»ÑĥÑĩÐ°Ð":1725,"ĠÐ¤Ð":1726,"ĠÐ¿Ð¾Ð»ÑĥÑĩÐ¸":1727,"Ð¾Ð»Ð¾":1728,"ÑĢÐµÐ¹":1729,"ĠÑģÐ»ÐµÐ´Ñĥ":1730,"ĠÐ´Ð¾Ð±Ð":1731,"ĠÐ¼Ð¾Ð¼Ð":1732,"Ġa":1733,"ÑĢÐ¾Ð½":1734,"ĠÐ½Ð¸ÐºÐ°":1735,"ĠÑĢÐµÑĪÐµ":1736,"ĠÑģÐ²Ð¾Ð¹":1737,"Ð¾ÐºÐ¸":1738,"Ð²ÐµÑģÑĤ":1739,");":1740,"ĊĠĠĠĠĠĠĠĠĠĠĠ":1741,"Ġ23":1742,"Ð±ÑĥÐ´ÑĮ":1743,"Ð²Ð¾Ð·":1744,"Ð¶Ð´Ðµ":1745,"ĠÐ¿Ð¾Ñı":1746,"ĠÐ¿Ð¾Ð»Ð":1747,"ĠÐ¿Ð¾ÑĩÐµÐ¼Ñĥ":1748,"ÑĤÑĮÑģÑı":1749,"Ġ24":1750,"ĠÐ¸ÑģÐ¿Ð¾Ð»ÑĮÐ·":1751,"ĠÑĤÐ¸":1752,"Ð´ÐµÐ»":1753,"ÑıÑīÐ":1754,"ĠÐ·ÐµÐ¼":1755,"¸Ð¼ÐµÐ½Ð½Ð¾":1756,"Ð¸Ð¼ÐµÐ½Ð½Ð¾":1757,"Ġ{":1758,"ÑĤÐ¸Ñħ":1759,"Ð·Ð°Ð½":1760,"Ġ<":1761,"ĠÐ²ÑģÑı":1762,"Ð³Ð¾Ð´Ð½Ñı":1763,"id":1764,"¸ÑīÐ":1765,"ĠÐ´Ð¾Ð¼":1766,"Ð½Ð¾ÑĪÐµ":1767,"°ÑĨÐ¸":1768,"ĠÐ³Ð»Ð°Ð·Ð°":1769,"Ð¿ÑĢÐ¸Ð¼ÐµÑĢ":1770,"ĠÑģÑĭ":1771,"Ð¾Ð³Ñĥ":1772,"ĠÑģÑĢÐ°Ð·Ñĥ":1773,"Ġb":1774,"ÑĢÐµÐ":1775,"ĠÑĢÐ°Ð¹":1776,"¾ÑĤÐ¾Ð²":1777,"ĠÐ¿Ð¾Ðº":1778,"µÑģÑĤÐ²Ð":1779,"Ð²ÑĭÐ":1780,"Ð²ÑĭÐµ":1781,"ĠÐ¸Ð¼ÐµÐ½Ð½Ð¾":1782,"¾ÑĢÐ¸":1783,"ĠÐ±Ð»Ð°":1784,"ÑĢÐ¼":1785,"ĠÐ¾ÑĦÐ":1786,"ĠÑĢÑĥÐ±":1787,"Ð²Ð¾Ð»":1788,"Ð¾ÑĩÐµ":1789,"Ð´Ð¸ÑĤ":1790,"ĠÐ°Ð´":1791,"Ð¶ÐµÐ½Ð¸Ðµ":1792,"ĠÐ¿ÐµÑĢÐ²":1793,"ch":1794,"ĠÐ¿ÑĢÐ¾Ð´Ð¾Ð»":1795,"ÑĢÐµÐ´Ð¸":1796,"ĠÐ³Ðµ":1797,"ÑĢÐ°Ñģ":1798,"Ð®":1799,"tp":1800,"ĠÐ¥Ð":1801,"¾ÑĢÐ¼":1802,"ĠÐ²ÑĤÐ¾ÑĢ":1803,"\\-":1804,"ĠÑģÑĢÐµÐ´":1805,"Ð¿Ñĭ":1806,"¸Ð°":1807,"ĠÐ´Ð²Ð¸":1808,"ÑĤÐ¸Ðµ":1809,"°ÐµÑĤ":1810,"ĠÐ¾ÑĢÐ³Ð°Ð½Ð¸":1811,"Ð»Ð¾Ð²Ð":1812,"ĠÐ¾ÑĤÐ¼Ðµ":1813,"Ð´Ð¸ÑĤÐµ":1814,"Ð¶ÐµÐ½Ð¸Ñı":1815,"ĠÐĴÐµ":1816,"ĠÐ²ÐµÐ´ÑĮ":1817,"ĠÐ½Ð¸Ð¼":1818,"Ġm":1819,"ĠÐºÐ¾ÑĢ":1820,"lo":1821,"ĠÐ²Ð»Ð°":1822,"ĠÑģÑĤÐ°Ð»":1823,"ÑĩÐ°ÑĤÑĮ":1824,"ĠÐ´ÐµÐ»Ð¾":1825,"ĠÐ³Ð¾ÑģÑĥÐ´Ð°ÑĢ":1826,"ÑĩÐºÐ¸":1827,"ĠÐ´Ð²Ñĥ":1828,"ÑĮÐµ":1829,"ĠÑģÐ»ÑĥÑĩÐ°Ðµ":1830,"ĠÑĢÐµÐ·Ñĥ":1831,"ĠÑĢÐµÐ·ÑĥÐ»ÑĮÑĤÐ°":1832,"ÑĤÐ¸ÑĤ":1833,"ĠÐ¾ÑĩÐµ":1834,"ĠÐºÐ²Ð°":1835,"°ÑİÑĤÑģÑı":1836,"ĠÑĩÑĥÐ²":1837,"¸Ð»Ð°":1838,"Ð»ÐµÐ´Ð¾Ð²Ð°":1839,"ĠÐ¿ÑĢÐ¸Ð½Ñı":1840,"ing":1841,"ĠÐ¼Ð¾Ðµ":1842,"ĠÑĩÐµÑĢ":1843,"ĠP":1844,"¸ÑĢÐ°":1845,"ĠÑĤÐ°ÐºÐ¾Ðµ":1846,"ĠÐ¼Ð¾Ð¹":1847,"ĠÑĤÑı":1848,"ĠÐºÐ¾Ð½ÐµÑĩÐ½Ð¾":1849,"ĠM":1850,"ĠÐ´Ð°Ð»ÑĮ":1851,"°Ð±":1852,"ÑģÐ¸Ð±Ð¾":1853,"http":1854,"Ð¼Ð°ÑĤÑĮ":1855,"ĠÐ³Ð»Ñĥ":1856,"Ð»Ð°Ð²":1857,"ĠÐ¦":1858,"ĠÐ¼Ð¾Ð³ÑĥÑĤ":1859,"ĠÑħÐ¾ÑĩÐ":1860,"ÑĢÐµÐ»":1861,"ĠÐ½Ð°Ð·":1862,"ÑĢÑĮ":1863,"ĠÑĥÐ²Ð¸":1864,"ĠÑĥÑĩÐ°Ñģ":1865,"Ġ}":1866,"ĠÐ¼Ð°ÑĢ":1867,"ĠÐºÐ¾ÑĤÐ¾ÑĢÐ°Ñı":1868,"°ÑħÐ":1869,"ÐŁÑĢÐ¸":1870,"ÐºÑĢÐ°Ð":1871,"ĠÐºÐ¾Ð¼Ð¿":1872,"Ð»ÐµÐ¼":1873,"ÑıÑĤÑģÑı":1874,"11":1875,"¸ÑĦÐ":1876,"ĠÐ³Ð¾Ð²Ð¾ÑĢ":1877,"Ð¾Ð½Ñĥ":1878,"ÑĤÐ°Ð¼Ð¸":1879,"ĠÐ¸Ð½ÑĦÐ¾ÑĢÐ¼Ð":1880,"ĠÐ²ÑģÐµÐ¼":1881,"ÑĢÐ°Ð»ÑĮ":1882,"ĠÐ¿ÑĢÐ¸Ð¼ÐµÑĢ":1883,"ÑĤÐ°Ð½":1884,"Ð·Ðµ":1885,"Ð²Ð°ÑĤÑĮÑģÑı":1886,"ÑĢÐµÐ´Ðµ":1887,"ĠÐ¿Ð¾Ð»Ð¸":1888,"ĠÐ±Ð¾Ð»ÑĮÑĪ":1889,"ĠÑģÑĤÐ¾Ð¸ÑĤ":1890,"ĠÐ²ÑĢÐµÐ¼ÐµÐ½Ð¸":1891,"ÑĥÑİÑ":1892,"Ġd":1893,"¾ÑħÑĢÐ°":1894,"ra":1895,"ĠÐ¢Ð°":1896,"ÐºÑĥÑİ":1897,"ÑĤÐ°Ð»":1898,"ĠÐ³Ð»Ð°Ð²":1899,"://":1900,"Ð¾Ð¿ÑĥÑģÑĤÐ¸":1901,"Ð´ÑĭÐ¹":1902,"Ð¢Ñĭ":1903,"ÑħÐ¾Ð´Ð¸":1904,"ĠÑģÐ¾ÑĤ":1905,"Ð½ÐºÐ¸":1906,"Ð¼Ð°Ð»":1907,"ĠÐ¢Ñĭ":1908,"ĠÑĩÐµÐ»Ð¾Ð²ÐµÐºÐ°":1909,"ĠÐŀÐ±":1910,"ĠÑģÐ´ÐµÐ»Ð°ÑĤÑĮ":1911,"ÑĨÐ¸Ñİ":1912,"Ð¾Ð´Ñĭ":1913,"Ð¾Ð·Ð½Ð°":1914,"ĠÐ³Ð¾Ð²Ð¾ÑĢÐ¸":1915,"ÑıÑĤÐ½Ð¾":1916,"ĠÐºÐ°ÑĢ":1917,"Ð»Ð¾Ð¶Ðµ":1918,"ĠÑģÑĤÐ°ÑĤÑĮ":1919,"ĠÑģÐ¾Ð²ÑģÐµÐ¼":1920,"ÑħÐ¾Ð´Ð¸ÑĤ":1921,"ĠÐĴÐ¾ÑĤ":1922,"ĠÑħÐ¾ÑĤÑı":1923,"ĠÑĤÐ°ÐºÐ¸Ðµ":1924,"ÑıÑĤÐ¸":1925,"ĠÑĥÐ¶":1926,"ĠÑģÐ»Ð¾Ð²":1927,"ĠÐ¼Ð¾Ð³Ñĥ":1928,"ĠÑĤÐµÑĢ":1929,"ÑĥÑİÑīÐ":1930,"Ð´ÐµÑĤÑĮ":1931,"Ð¾Ð´Ð¸ÑĤ":1932,"Ġ,":1933,"ĠÐ·Ð°Ð´Ð°":1934,"ĠÑĨ":1935,"ÑĳÐ»":1936,"ĠÐ¼ÑĥÐ¶":1937,"ĠÑģÐ¿ÐµÑĨÐ":1938,"ÑĢÐ¾Ð´Ðµ":1939,"¸ÑĤÑĥÐ":1940,"ĠÐ¾ÑĤÐ½Ð¾ÑĪÐµ":1941,"ĠÐ´ÐµÐ»Ð°ÑĤÑĮ":1942,"ĠÑģÐ¿Ð¾Ñģ":1943,"ĠÐ½ÐµÐ¾Ð±":1944,"ĠÐ½ÑĥÐ¶":1945,"ĠÐ½ÐµÐ":1946,"ĠÐ²ÑĢÐ°":1947,"ĠÑĤÑĭÑģÑı":1948,"ĠÑĪÐº":1949,"ÑĢÐ¾Ð¼Ðµ":1950,"ÑĩÐ½ÑĭÐ¹":1951,"ĠÐ²Ð°ÑĪÐ":1952,"ÑĥÑİÑĤ":1953,"¾ÑĩÑĥ":1954,"ĠÐ³ÑĢÑĥÐ¿":1955,"Ð´Ð½Ð°":1956,"ĠÐ¿Ð¾ÑĩÑĤÐ¸":1957,"Ð²ÐµÑĢÐµ":1958,"ÐĴÑĭ":1959,"Ð¢Ð°Ðº":1960,"ÑĢÑĥÐº":1961,"ĠÑģÐ¾Ð»":1962,"ĠÑĢÐ°Ð²Ð½Ð¾":1963,"ĠF":1964,"ĠÑģÐ¾Ð":1965,"ÑĪÐ¸Ð¹":1966,"ÑĤÐµÐ¼":1967,"ĠÐ½ÐµÑģ":1968,"ÑıÐ½":1969,"Ð¼ÐµÑĢÐ¸":1970,"Ġv":1971,"ĠÐľÑĭ":1972,"ĠÐ²Ð·Ð³Ð»Ñı":1973,"Ð¼ÑĭÑģ":1974,"##":1975,"ÑĤÐ°Ñħ":1976,"ÐķÑģÐ»Ð¸":1977,"ĠÐ¿ÑĢÐ¸Ñħ":1978,"ĠÐ³Ð¾ÑĢÐ¾Ð´":1979,"ĠÐ¿ÑĢÐ¾Ð³ÑĢÐ°Ð¼":1980,"ce":1981,"Ġ26":1982,"âĢĶ":1983,"ĠÑħÐ¾ÑĢÐ¾ÑĪÐ¾":1984,"ĠÐ´Ð¾Ð±":1985,"ĠÐ½ÐµÐºÐ¾":1986,"un":1987,"Ð¿Ð¾":1988,"ÐºÐ°Ð·Ð°":1989,"Ð»Ð¸Ð½":1990,"Ð¾Ð²Ð¾ÑĢ":1991,"°ÑĤÑĥ":1992,"ĠÐ½Ð¾ÑĢÐ¼Ð":1993,"ĠÑģÐ¾Ð²ÐµÑĢ":1994,"ĠÐ²Ð´":1995,"Ð»Ð¸ÑĤÑĮ":1996,"Ð½ÑĥÐ»Ð°":1997,"ĠÐºÐ¾ÑĤÐ¾ÑĢÑĭÑħ":1998,"ĠÑģÐ¸Ð»":1999,"ÑĢÐ°Ð»":2000,"Ġ:)":2001,"¸Ð´":2002,"ĠÐ£ÐºÑĢÐ°Ð":2003,"ĠÐ½Ð°Ð¿Ð¸ÑģÐ°":2004,"ĠÐ¼Ð¸Ð½Ñĥ":2005,"Ð·Ð°Ð´":2006,"ĠÐ»ÐµÐ³":2007,"ĠÐ½Ð°ÑĪ":2008,"ĠÐºÑĢÐµ":2009,"¾ÑĤÐºÐ":2010,"Ð½Ð¸Ð±ÑĥÐ´ÑĮ":2011,"ĠÐ¼Ð¸Ð»":2012,"Ð·Ñı":2013,")/":2014,"ÑģÑĤÐ²Ðµ":2015,"Ð¾Ð²Ð°Ð½":2016,"ĠÑģÐ¾ÑģÑĤÐ¾Ñı":2017,"Ð½Ð¸Ñħ":2018,"Ð¿Ð¾Ð¼":2019,"ÑĢÐ¸ÑĤÑĮ":2020,"ÑĢÐ¾Ð¿Ð":2021,"Ð²ÑĪÐ¸":2022,"ÑıÑģÑĮ":2023,"°Ð¼Ð¸":2024,"ĠN":2025,"ĠÐ´ÐµÑĤ":2026,"ĠÑĢÑıÐ´":2027,"ĠÑĢÐ°Ð±Ð¾":2028,"Ġ27":2029,"ĠÑĢÑĥÑģ":2030,"ĠÑģÐ¸ÑĤÑĥÐ":2031,"ĠÐ¿ÑĢÐ¾Ð²":2032,"Ġ/":2033,"ĠÐ¿ÑĢÐ¸Ñģ":2034,"Ð²ÑĭÑħ":2035,"ĠÐ³Ð¾Ð»Ð¾Ñģ":2036,"Ġw":2037,"ĠÐ¼Ð°ÑĤÐµ":2038,"ÑĢÑĥÑİ":2039,"ÑĤÐµÐ½":2040,"Ð¾Ð¶Ð½Ð¾":2041,"Ð´ÐµÐ¼":2042,"ĠÑģÐ²Ð¾Ð¸Ñħ":2043,"ĠÐ»ÑİÐ±Ð":2044,"ĠÐ¿ÑĭÑĤÐ°":2045,"ĠÐ¾ÑĤÐ»Ð¸":2046,"Ð¾Ð¿ÑĥÑģÑĤÐ¸Ð¼":2047,"Ð²ÐµÐ½":2048,"¸ÑĤÐµÐ»ÑĮÐ½Ð¾":2049,"ĠÑįÑĤÑĥ":2050,"µÑħÐ":2051,"ĠÐºÐ¾Ñģ":2052,"ÐĽÐ":2053,"Ġ100":2054,"Ð¾Ð¶ÐµÑĤ":2055,"°Ð»Ð°":2056,"ur":2057,"ĠÐ¿Ð¾Ð³":2058,"ĠÑģÑĤÑĥ":2059,"ĠÐ¾Ð±ÑĬÐ":2060,"ĠÐľÐ¾ÑģÐº":2061,"Ð²Ð°Ñİ":2062,"µÐ½Ñĭ":2063,"ÑĢÐ°Ð±Ð":2064,"Ð²ÑĪÐ¸Ð¹":2065,"ĠÑĤÑĢÑĥ":2066,"ĠÑįÐºÑģ":2067,"ĠÑĩÐ¸ÑĤÐ°":2068,"ĠÐ¾ÑģÐ¾Ð±Ð":2069,"12":2070,"ĠÐ¸Ð½ÑĤÐµÑĢ":2071,"ĠÑģÐ¾Ð±ÑģÑĤÐ²ÐµÐ½":2072,"ÑĩÐµÑģÑĤÐ²Ð¾":2073,"ĠÑĦÐ¸":2074,"ÑģÑĤÐ¾Ð²":2075,"Ġ28":2076,"ĠÑĤÐ²Ð":2077,"ĠÐ¿Ð¾Ð¹":2078,"ĠR":2079,"ĠÐºÐ»Ð°Ñģ":2080,"ÑĩÑĤÐ¾":2081,"com":2082,"Ð·Ð°ÑĨÐ¸Ð¸":2083,"Ð½Ð¸Ð»":2084,"ĠÐ¿ÑĢÐ¾Ð²Ðµ":2085,"Ð¾Ð´Ð¸ÑĤÑģÑı":2086,"Ð²Ð°Ð»Ð°":2087,"ĠÐ´Ð¾Ð»Ð¶ÐµÐ½":2088,"Ð½Ð¾ÑģÐ":2089,"Ð»Ð¾Ð¶Ð":2090,"ĠÑĨÐµÐ½ÑĤ":2091,"ÑģÐ°ÑĤÑĮ":2092,"¸Ð´Ðµ":2093,"¾ÑĢÐµ":2094,"ĠÑĢÐ°Ð±Ð¾ÑĤÑĭ":2095,"Ð¸Ð½Ð":2096,"ĠÑĦÐ°Ðº":2097,"Ð¼ÐµÑİ":2098,"ĠÐ´Ð¾Ñģ":2099,"ĠÐ²ÐµÑģÑĮ":2100,"ĠÐ¾ÑģÐ½Ð¾Ð²":2101,"ĠÐ¿ÑĢÐ¸ÑĪ":2102,"ĠÑģÐºÐ°Ð·Ð°ÑĤÑĮ":2103,"ÐºÐ°ÑĤÑĮ":2104,"ĠÑĪÐ°":2105,"ĠÐ´Ð¾Ð¼Ð°":2106,"Ð¸Ñİ":2107,"ÑĢÐ¾Ðº":2108,"ĠÐ¿Ð¾ÑģÐ¼Ð¾ÑĤ":2109,"ĠÐŀÐ½Ð¸":2110,"ĠÑıÐ·Ñĭ":2111,"ĠÐ½Ð°Ð·Ð°Ð´":2112,"ĠÐ´Ð²Ðµ":2113,"he":2114,"ÑĤÐ°Ð¼":2115,"ĠÐ½Ð°Ð·Ñĭ":2116,"°ÑĨÐ¸Ñİ":2117,"ĠÐ½Ð°Ñĥ":2118,"ĠÐ°Ð²Ñ":2119,"ĠÐ°Ð²ÑĤ":2120,"Ð¿Ð¾Ð»Ð½Ðµ":2121,"ĠÐ°ÑĢ":2122,"Ð½Ð°Ð´":2123,"ÑĪÐµÐ³Ð¾":2124,"ĠÑĢÐ°Ð²":2125,"Ð¼ÐµÐ½Ñ":2126,"Ð¼ÐµÐ½ÑĤ":2127,"ĠÐºÐ½Ð¸":2128,"ĠÑĢÐ¾ÑģÑģÐ¸Ð¹":2129,"Ð¾ÐºÐ¾Ð¹":2130,"ĠÐ¾ÐºÐ°Ð·Ð°":2131,"ĠÐ´ÐµÑģ":2132,"ĠÑģÐµÐ¼":2133,"ÑĢÐ¶":2134,"ĠÑĩÐ°ÑģÑĤÑĮ":2135,"ĠÐ¢Ðµ":2136,"ĠÑģÐ²ÐµÑĤ":2137,"ĠÐ¿Ð»Ðµ":2138,"Ð½ÐµÐ³Ð¾":2139,"ĠÐ±Ð¸":2140,"ÐºÐ¾Ðµ":2141,"ĠÐ²ÑĭÑĪÐµ":2142,"Ġo":2143,"±Ð":2144,"ĠÐ´ÑĢÑĥÐ³Ð¸Ñħ":2145,"ĠÐ®":2146,"ĠÐĲÐ»ÐµÐº":2147,"ÑĩÐºÐ°":2148,"ĠÐ´ÑĢÑĥÐ³Ð¾Ð¹":2149,"ĠÐ¾Ð¿ÑĢÐµÐ´Ðµ":2150,"Ð¿ÑĢÐ¾Ñģ":2151,"ĠÐºÐ¾ÑĤÐ¾ÑĢÐ¾Ð¹":2152,"ĠÐ¿Ð¾Ð´Ð¾Ð±":2153,"ÑģÑĤÑĥÐ¿":2154,"ĠÐĿÐ¸":2155,"ÐĴÐ¾ÑĤ":2156,"Ð´ÐµÐ½ÑĤ":2157,"ÑĢÐ°Ð²Ð»Ñı":2158,"ĠD":2159,"Ð½ÐµÑĢ":2160,"ĠÐ¡Ð¨":2161,"ÑģÐºÐ¸Ð¼":2162,"ĠÐ´ÐµÐ½ÑĮÐ³Ð¸":2163,"ĠÐ¼ÐµÑģÑĤÐ¾":2164,"¾ÑĤÐ¸":2165,"Ð¾Ð½ÐµÑĨ":2166,"ĠÐ¡Ð¨ÐĲ":2167,"ĠÐĴÐ°":2168,"ĠÐ¼Ð°ÑĪÐ¸":2169,"ĠÐ¾ÑĤÐºÐ":2170,"ÑĤÐ¾ÑıÑīÐ":2171,"ĠÐ¾Ð±Ð»Ð°ÑģÑĤÐ¸":2172,"ĠÐ¼Ð½Ð¾Ð³Ð":2173,"Ð¾Ð½Ð¾Ð²":2174,"ĠÑģÐµÐ³Ð¾Ð´Ð½Ñı":2175,"Ð´Ð°ÐµÑĤ":2176,"Ð¾Ð´Ð¸ÑĤÑĮ":2177,"ĠÑħÐ¾ÑĤÑĮ":2178,"ĠÐ¡Ðµ":2179,"ĠÐ£ÐºÑĢÐ°Ð¸":2180,"ĠÐ¾Ð±Ñı":2181,"¾Ñĳ":2182,"ĠÐ¿ÑĢÐ¾Ñħ":2183,"ÑĩÐ°Ð»":2184,"ĠÑģÐµÑĢÐ´":2185,"ÑģÐ»Ñĥ":2186,"ĠÑĥÐ»Ð":2187,"ĠÑĢÐ¸":2188,"ĠÐ½Ð¸ÐºÐ¾Ð³Ð´Ð°":2189,"µÑĤÑĭ":2190,"ĠÐ½Ð¸ÐºÑĤÐ¾":2191,"te":2192,"ÑĩÐ½ÑĭÑħ":2193,"Ð´ÐµÐ½Ð¸Ðµ":2194,"ĠÐ¼Ð¾Ð¼ÐµÐ½ÑĤ":2195,"ĠÑģÐ¿ÑĢÐ¾ÑģÐ":2196,"Ð¾ÑĪÐ":2197,"ĠÑĥÐ±Ð":2198,"Ð¾Ð³Ðµ":2199,"ĠÑĤÐ°ÐºÐ¸Ñħ":2200,"Ð²Ð¾Ðµ":2201,"Ð»ÐµÐ½ÑĮ":2202,"Ð»ÑĭÑĪÐ":2203,"Ð²Ð°ÐµÐ¼":2204,"19":2205,"Ð½ÐµÐ³":2206,"Ð½Ð½Ð¾":2207,"ĠÑģÐ¾Ð²ÐµÑĤ":2208,"ÑĩÐ½Ð¾Ð¹":2209,"Ð¿Ð¾Ñģ":2210,"ĠÑģÐ½Ð¾Ð²Ð°":2211,"ĠÐ¸Ð½Ð":2212,"ĠÐ¸Ñİ":2213,"ĠÑįÑĤÐ¸Ñħ":2214,"ĠÑįÑĤÐ¸Ð¼":2215,"Ġ29":2216,"ĠÑĢÐµÐ³Ð¸":2217,"ĠÑģÑĤÑĢÐ°Ð½":2218,"ĠÐ¾Ð¿ÐµÑĢÐ°":2219,"ÑĩÐ½ÑĭÐµ":2220,"ĠÐ½Ð°Ð":2221,"ĠÑĦÐ¸Ð»ÑĮ":2222,"ĠÐ¾Ð´Ð½Ð¾Ð¹":2223,"ĠÑģÐ°Ð¹":2224,"ĠÐ¿ÑĢÐ¾Ð¸Ñģ":2225,"ĠÑģÐ»Ð°":2226,"ÑĢÐ¾Ð¹":2227,"ĠÐ²Ð½Ð¸Ð¼Ð°":2228,"15":2229,"ĠÐ¼Ð¸ÑĢ":2230,"ĠÐ¼Ð¸Ð½Ð¸":2231,"¸ÑĨÐ¸":2232,"ĠÐ²Ð½ÑĥÑĤ":2233,"ĠÐ¾ÑĪÐ":2234,"ĠÐķÐ²":2235,"ÑĪÐ¸Ñħ":2236,"ĠÑĢÐµÐ°Ð»ÑĮ":2237,"ĠÐ¿Ð¾Ð¼Ð¾Ñī":2238,"ÑĩÐ°ÑĤ":2239,"ĠÑĥÑģÐ»Ð¾Ð²Ð":2240,"¾ÑĤÐ¾":2241,"ĠÐ½ÐµÐµ":2242,"Ð²ÐµÐ»Ð¸":2243,"ÑĩÐµÑģÐºÐ¸Ð¹":2244,"ÑģÐµÐ½":2245,"ĠÑĩÐ°":2246,"ÑĥÑĪÐºÐ°":2247,"¾ÑĦ":2248,"Ð´Ð°Ð»":2249,"is":2250,"ÑĩÐ°Ð»Ð°":2251,"ĠÑĢÐ¾Ð´":2252,"ÐµÐ´":2253,"ÑĤÐ°Ðº":2254,"=\"":2255,"ad":2256,"ÑĢÐ°Ñħ":2257,"ĠÑģÐ¾Ð±Ð¾Ð¹":2258,"ĠÐºÐ°Ð¶Ð´ÑĭÐ¹":2259,"il":2260,"ĠÐ´Ð²ÑĥÑħ":2261,"ĠÐ¿ÑĢÐ¾Ð¸Ð·Ð²Ð¾Ð´":2262,"ĠÑģÐ»ÐµÐ´ÑĥÑİÑīÐ":2263,"Ð²Ð°Ð¹":2264,"ĠÑıÐ²Ð»ÑıÐµÑĤÑģÑı":2265,"Ð¾Ð¿Ð°Ñģ":2266,"ĠÐºÑĥÐ´Ð°":2267,"ĠÑģÐ¼ÐµÑĢ":2268,"Ð²ÑĪÐ¸ÑģÑĮ":2269,"ĤÑĢÐ°Ð½":2270,"ÑĤÑĢÐ°Ð½":2271,"ĠÑĥÐ½Ð¸":2272,"ĠÐ²Ð¾ÐµÐ½":2273,"Ð¾Ð²Ð°Ð½Ð¸Ñı":2274,"Ð²Ñı":2275,"ĠÐĺÐ·":2276,"ĠÐ¿ÑĢÐµÐºÑĢÐ°":2277,"ĠÐ¿Ð¾ÐºÐ°Ð·Ð°":2278,"Ð¾Ð´Ð°ÑĢ":2279,"ÑĢÐµÐ±":2280,")))":2281,"ÑĢÐ°Ð²Ð":2282,"Ð»Ð¸Ðº":2283,"ĠÑģÐ¾Ð²ÐµÑĢÑĪÐ":2284,"iv":2285,"ĠÐ¡Ð°":2286,"ĠÐ½Ð¾ÑĢÐ¼Ð°Ð»ÑĮ":2287,"ĠÑĤÐµÐ»Ð":2288,"ĠÑģÑĤÐ¾ÑĢÐ¾Ð½Ñĭ":2289,"ĠÐ¿ÑĢÐ¾Ð´Ð°":2290,"Ġ`":2291,"ĠÑģÐ¿Ð¾ÑģÐ¾Ð±":2292,"ĠÑĤÐ¾Ð»":2293,"ÑģÐºÐ¾Ðµ":2294,"Ð½Ð´Ð¸":2295,"ĠÐ¿ÐµÑĢÐ":2296,"ÑĨÑĥ":2297,"ĠÑĢÐ°Ð·Ð²Ð¸":2298,"Ð½Ð¸ÑĨÐ°":2299,"ÑĩÐ°ÐµÑĤÑģÑı":2300,"ĠÑģÐµÐº":2301,"ĠÐ¼ÐµÑģÑ":2302,"ĠÐ¼ÐµÑģÑĤ":2303,"ĠÑģÐ²Ð¾ÐµÐ³Ð¾":2304,"Ð¾Ð¿Ð¾Ð»":2305,"ĠÐ²Ð¼ÐµÑģÑĤÐµ":2306,"ĠÑħÐ¾Ð»":2307,"ÑĩÐµÑģÐºÐ¾Ð¹":2308,"ĠÑħÐ²Ð°":2309,"ĠÐ·Ð°ÑīÐ":2310,"Ð½Ð³Ð":2311,"Ð¾ÑĢ":2312,"ÑĢÐµÐµ":2313,"ĠÐ½ÐµÐ´Ðµ":2314,"ĠÑĦÑĥÐ½Ðº":2315,"Ð´Ð¸ÑĤÑĮ":2316,"Ð²Ð°Ð½":2317,"ÑĤÐ¸Ð¹":2318,"µÐ½ÑĤÐ°":2319,"ĠÐºÐ¾Ð³Ð¾":2320,"Ð¾Ð²ÑĭÑħ":2321,"µÑĢÐ¶Ð":2322,"ĠG":2323,"ĠÐºÐ¾Ð¼Ð¼ÐµÐ½ÑĤÐ°":2324,"ĠÐ¿Ð¾ÑģÐ":2325,"ĠÐ¼ÐµÐ½ÑĮ":2326,"Ð±Ð¸ÑĢÐ°":2327,"Ð»Ð¸ÑĪ":2328,"ĠÑģÑĥÑīÐµÑģÑĤÐ²":2329,"Ð°Ð½Ð°":2330,"ĠÐ¿ÑĢÐµÐ·Ð¸":2331,"ÑĩÐ°ÐµÑĤ":2332,"ÐĲÐ¡Ð¡":2333,"oo":2334,"Ð¿Ð»Ð":2335,"ĠĠĠĠĠĠĠ":2336,"Ð²Ð°Ð½Ð¸Ñı":2337,"ĠÑħÐ¾ÑĩÐµÑĤ":2338,"ĠÐ±Ð¾ÑĢ":2339,"ÑĢÑĤÐ¸Ð½ÐºÐ°":2340,"ÑĤÐµÑĢÐ°":2341,"ĠÐļÑĥ":2342,"ÑĤÐµÑĤ":2343,"µÐ´Ð¸":2344,"ÑĢÑİ":2345,"ÐľÑĭ":2346,"Ġg":2347,"Ð¼ÐµÐ½Ð°":2348,"Ð½Ð¸ÑĨÑĭ":2349,"ĠÑģÐ¾Ð¾ÑĤÐ²ÐµÑĤ":2350,"Ð¶Ð°ÑĤÑĮ":2351,"ĠÐ¸Ð·Ð²ÐµÑģÑĤ":2352,"ÑĩÐµÐ¹":2353,"ÑĢÐ¸Ð°Ð½":2354,"ĠÐ·Ð°Ð±Ñĭ":2355,"ĠÐ¼ÐµÑĢ":2356,"ĠÑĢÐ°Ð·Ð³":2357,"ÑĤÐ¸Ð½":2358,"ĠÑĤÑĢÑĥÐ´":2359,"ÑĳÑĢ":2360,"ĠÐ¶ÐµÐ»Ð°":2361,"ÑĤÐ¾ÑĩÐ½Ð¾":2362,"ate":2363,"µÐ´Ð¸Ð½":2364,"Ð»ÑĭÐ¹":2365,"ĠÐ¿Ð¾ÐºÑĥ":2366,"ck":2367,"ÑĤÐ¸Ð¸":2368,"ĠÐłÐ°":2369,"Ð²Ð»ÐµÐ½":2370,"ĠÑĢÐ¾Ð´Ð¸":2371,"Ġ50":2372,"ĠÐ¿Ð¾Ð±Ðµ":2373,"Ġ40":2374,"ĠÐ¾ÑģÐ½Ð¾Ð²Ð°":2375,"ĠÑĥÐ¼":2376,"Ð½ÑıÑĤÑĮ":2377,"ĠÐºÐ¾Ð»Ð¸":2378,"¸ÑĨÐ¸Ð¸":2379,"¾ÑĪÐµÐ»":2380,"Ð²Ð°Ð½Ð¸Ðµ":2381,"ĊĠĠĠĠĠ":2382,"ĠÐłÐ¤":2383,"Ð¾Ð·Ñı":2384,"Ð¾Ð»Ð¾Ð³Ð":2385,"ÑĩÐµÑģÐºÐ¸Ñħ":2386,"Ð½Ð°Ñħ":2387,"Ð»ÑĮÐ·Ñı":2388,"ĠÐ´ÐµÑĢÐµÐ²":2389,"ĠÐºÐ¾Ð¼Ð°Ð½Ð´":2390,"ÑģÑĤÑĥÐ¿Ð":2391,"ĠÐ¾Ð´Ð½Ð¾Ð³Ð¾":2392,"ÑĢÐ¸Ð»":2393,"ĠÐ±ÑĭÑģÑĤ":2394,"ÑıÑħ":2395,"ĠÐ½Ð°Ð²ÐµÑĢ":2396,"ÑĢÐ¸ÑĤÐ¾":2397,"Ð²Ð¸Ð»Ð¸":2398,"ĠÑģÑĤÐ¾Ð»":2399,"ÑĢÐ¸ÑĤ":2400,"ĠB":2401,"ÑģÑĤÑĢÐ¾Ð¹":2402,"ĠÐ´Ð¾Ð»Ð¶Ð½Ñĭ":2403,"ĠÑģÑĤÐ°ÑĢ":2404,"Ð²Ð°Ð»ÑģÑı":2405,"ĠÐ¿Ð¾ÑĤÐµ":2406,"ĠÐ½Ð°Ð¿ÑĢÐ¸Ð¼ÐµÑĢ":2407,"ĠÐ½Ð°Ð´Ðµ":2408,"ĠÐĹÐ":2409,"ĠÑģÑĤÐ¾Ñı":2410,"ĠÐĽÐµ":2411,"ÑĤÐµÐ»ÑĮÑģÑĤÐ²Ð°":2412,"ĠÐ¿Ð¾Ð²Ðµ":2413,"Ð¸Ð»":2414,"ge":2415,"Ð¿Ð¾Ð´":2416,"ĠÐ¿Ð¾Ð":2417,"\\.":2418,"ĠÐ¼Ð¾Ð":2419,"¾ÑĢÐ¾Ð²":2420,"ÑģÑĤÐ²ÐµÐ½Ð½Ð¾":2421,"....":2422,"ĠÑĢÑĥÐ±Ð»ÐµÐ¹":2423,"ÐºÐ°Ð¼":2424,"Ð¾Ð»ÐµÑĤ":2425,"ÑĩÐºÑĥ":2426,"Ð²Ð¾ÑĤ":2427,"Ð¸Ð´Ðµ":2428,"ĠÑĢÑĥÐºÐ¸":2429,"ĠÐ¾ÐºÐ¾Ð»Ð¾":2430,"ĠÐ½Ð°Ðº":2431,"¾ÑĨÐµ":2432,"ÐµÑĪÐ":2433,"ĠÑĦÐ¾ÑĢÐ¼Ð":2434,"Ð¼Ð¸Ð½Ð¸":2435,"ĠÑĤÐ¾ÑĩÐ½Ð¾":2436,"ub":2437,"ĠÐļÐ¾Ð³Ð´Ð°":2438,"ĠÐºÐ°Ð¶Ð´":2439,"Ð´ÐµÑĢ":2440,"Ð»Ð¸Ñı":2441,"ĠÐ¿Ð¾Ð´Ð°":2442,"ÑĩÐ¸Ð»":2443,"ĠÐ½ÐµÐºÐ¾ÑĤÐ¾ÑĢÑĭ":2444,"ew":2445,"ÐĳÐ":2446,"ĠÐ»Ð¸Ð±Ð¾":2447,"ÑĩÐ¸Ðº":2448,"Ð½Ð·":2449,"ÑģÑĤÐ²Ð¾Ð¼":2450,"ĠÑĥÐ»Ñĭ":2451,"Ð¿Ð°ÑģÐ¸Ð±Ð¾":2452,"ĠÐ¿ÑĢÐ¾ÑĨÐµÑģ":2453,"13":2454,"Ð²ÐµÐ´":2455,"Ð¾Ð½Ð¾":2456,"Ð¾Ð²ÑĭÐ":2457,"Ð¼Ð°ÑĤ":2458,"Ð¾Ð²ÑĭÐµ":2459,"ĠÐ²ÑĭÑĢÐ°":2460,"ĠÐ³Ð¾Ð»Ð¾Ð²":2461,"Ġ$":2462,"Ð±Ð»Ñİ":2463,"ĠÐ·Ð°Ð²Ð¸":2464,"ww":2465,"ĠÑģÐ¼ÑĭÑģ":2466,"Ð½Ð°ÑĤÑĮ":2467,"ĠÐ²ÐµÑīÐ":2468,"ÐļÐ°":2469,"ĠÐ½Ð¾Ñģ":2470,"ĠÐ¿Ð¾ÑįÑĤÐ¾Ð¼Ñĥ":2471,"ĠÐŀÐ´Ð½Ð°":2472,"¸Ð»Ð¸ÑģÑĮ":2473,"Ð²ÐµÐ·":2474,"ĠÐ¿ÑĢÐ¸Ð½":2475,"ĠÐ¿Ð¾Ð½Ð¸Ð¼Ð°":2476,"el":2477,"Ð½Ð¸ÑĤ":2478,"ĠÐºÐ°ÐºÐ¸Ðµ":2479,"Ð¾Ð²Ð°Ð»Ð¸":2480,"ĠÐºÑĥÑĢ":2481,"ĠÑĥÐ´Ð¸":2482,"Ð½Ð´Ð°":2483,"Ð¶Ð°Ð»":2484,"14":2485,"ĠÐ¼Ð¾ÑĢ":2486,"¸Ð¼Ð¸":2487,"ÐĴÑģÐµ":2488,"ĠÐ±ÑĢÐ°":2489,"ĠÐºÑĢÑĭ":2490,"ĠÑģÐ¾ÑĤÑĢÑĥÐ´":2491,"ĠÐ¿Ð¾Ð·Ð":2492,"ĠÐºÐ¾ÑĤÐ¾ÑĢÐ¾Ð³Ð¾":2493,"ĠÑĤÐµÐ»ÐµÑĦ":2494,"ĠÐ¸Ð·Ð¼Ðµ":2495,"ĠÐ¸ÑģÐ¿Ð¾Ð»ÑĮÐ·Ð¾Ð²Ð°":2496,"ĠÐ²Ð¾Ð·Ð²ÑĢÐ°":2497,"¾ÑĤÐ°":2498,"ab":2499,"ÑĢÐ¿Ð":2500,"ÐºÐ°ÑĢÑĤÐ¸Ð½ÐºÐ°":2501,"ĠÑģÐ°Ð¼Ð¸":2502,"ĠÐ¾ÑĤÑģ":2503,"ĠÐ²ÐºÐ»Ñİ":2504,"ĠÐ¸Ð´Ðµ":2505,"Ð½ÐµÐ½Ð¸Ðµ":2506,"Ð¾Ð±ÑĢÐ°":2507,"ĠÐ¿Ð¾ÑģÑĤÑĥ":2508,"ĠÐ¡ÑĤÐ°":2509,"ĠÑĩÐ°ÑģÑĤÐ¸":2510,"ĠÐ¿ÑĢÐ¾ÑĦÐ":2511,"ĠÑĤÐµÑĢÑĢÐ¸ÑĤÐ¾":2512,"Ð¾Ñħ":2513,"Ð»ÑıÑĤÑĮ":2514,"°ÑĢÐ¼Ð":2515,"16":2516,"ĠÐ±ÑĥÐ´":2517,"Ð¼Ð¾ÑģÑĤÐ¸":2518,"Ð¾Ð»ÑĮÐ½Ð¾":2519,"Ð¿ÐµÑĢÐµ":2520,"Ð»Ð¸ÑĪÐºÐ¾Ð¼":2521,"Ġ.":2522,"Ð»ÑĮÐ½ÑĭÐµ":2523,"ĠÐ·Ð°Ñħ":2524,"Ð½ÐºÑĥ":2525,"ĠÐ¿Ð¾ÑģÑ":2526,"ĠÑĤÐ°ÐºÐ°Ñı":2527,"ĠÐ¿Ð¾ÑģÑĤ":2528,"ĠÐ´Ð¾Ð²":2529,"ĠÐ¾ÑĦÐ¸ÑĨÐ":2530,"ĠÑģÐ²Ð¾Ð±":2531,"Ð²Ð°ÑİÑīÐ":2532,"ĠÐŁÐ¾ÑĤ":2533,"¸ÑīÐµ":2534,"°ÑĢÐµ":2535,"ĠÐ¾Ð±ÑĬÑıÑģ":2536,"ÑģÑĤÐ°ÑĤÐ¸":2537,"ĠÐ·Ð°Ð³":2538,"ĠÐ½ÐµÐ¼Ð½Ð¾Ð³Ð¾":2539,"Ð²ÑĪÐ¸Ñħ":2540,"°Ð¿":2541,"ĠÐ¼Ð»":2542,"Ð½Ð¾Ð²Ðµ":2543,"ĠÐ¿ÐµÑĢÐ²ÑĭÐ¹":2544,"ĠÐ¾Ð±ÑīÐµÑģÑĤÐ²Ð":2545,"ĠÐ¿Ð°Ð¼":2546,"18":2547,"ĠÑĤÐ¾Ð¼Ñĥ":2548,"ĠÐ·Ð½Ð°ÑĩÐ¸ÑĤ":2549,"ÐµÐ´Ð¸Ð½":2550,"ĠÐĽÐ¸":2551,"ĠÑĥÑ":2552,"ĠÑħÑĢÐ°":2553,"Ð»ÑĮÐ½ÑĭÐ¹":2554,"ĠÐ¿ÑĢÐ¾Ð¸":2555,"ĠÑĥÑĤ":2556,"ÑĢÐ¾Ð¿":2557,"ÑĥÑģÐºÐ°":2558,"ĠW":2559,"ĠÐ¾ÑĤÐºÐ°":2560,"ĠÑįÐºÐ¾Ð½":2561,"ĠÐ¿Ð¾ÑĢÑıÐ´":2562,"ÑĢÐµÐº":2563,"ĠÑĢÑıÐ´Ð¾Ð¼":2564,"ÑĤÐ¸Ð»Ð¸":2565,"Ð¾Ð²ÑĭÐ¹":2566,"Ð±ÐµÑĢ":2567,"ĠÐ³Ð¾ÑĢÐ¾Ð´Ð°":2568,"ĠÐ¸ÑĤ":2569,"ĠÑģÐ²Ð¸":2570,"Ġ32":2571,"ĊĠĠĠĠĠĠĠĠĠĠĠĠĠĠĠĠ":2572,"Ġ35":2573,"µÑīÐµ":2574,"ĠÑģÐºÐ¾Ð»ÑĮÐºÐ¾":2575,"ĠÐ¿ÑĢÐ¸Ð·Ð½Ð°":2576,"Ð¼Ð°Ð½":2577,"¸ÑĨÑĭ":2578,"ĠÑģÐ½Ð°":2579,"Ġl":2580,"ĠÑĤÐµÐ»Ðµ":2581,"ĠÐ¿Ð¾Ð´Ñĥ":2582,"ÑģÑĤÐ²Ð¸Ðµ":2583,"Ð½Ð¸Ð¼Ð":2584,"us":2585,"ĠÐ´Ð°Ð²Ð½Ð¾":2586,"ĠÐ·Ð°ÐºÑĢÑĭ":2587,"ĠÐ²ÑĢÐ¾Ð´Ðµ":2588,"ÑıÐ±ÑĢÑı":2589,"ĠÑĢÑĥÐºÐ¾Ð²":2590,"¸Ñī":2591,"ĠÐ´ÐµÐ»Ðµ":2592,"Ð²ÑĭÐ¼":2593,"Ð°ÑĤ":2594,"ĠÐŀÑ":2595,"ÑĦÐ¸":2596,"ĠÐ´Ð½Ñı":2597,"ĠÑģÑĤÑĢÐµ":2598,"ĠÐ³Ð¾Ð²Ð¾ÑĢÐ¸ÑĤ":2599,"ĠÐ°Ð½Ð°":2600,"ĠÐ¾Ð½Ð¾":2601,"ÑĤÐ¾ÑĢÑĥÑİ":2602,"Ð¼ÐµÑĢÐ¸ÐºÐ°Ð½":2603,"ĠÐ²ÑģÑİ":2604,"ĠÑħÐ¾ÑĩÑĥ":2605,"ÑĤÐ²ÐµÑĢÐ¶":2606,"ĠÐ³Ð¾ÑĤ":2607,"ÑģÐºÑĥÑİ":2608,"ig":2609,"Ð¾Ð´ÐµÑĢÐ¶Ð":2610,"Ð½Ð¾Ðº":2611,"ÑĢÐ¸Ñİ":2612,"ĠÑģÐ¼Ð¾Ð³":2613,"ĠÐ¿ÑĢÐµÑģ":2614,"ĠÐĶÐµ":2615,"Ġ'":2616,"Ð¾Ð²Ð°Ñı":2617,"ĠÑĥÐºÑĢÐ°":2618,"ĠÑĩÐ°ÑģÑĤÐ¾":2619,"ĠÑįÐ»ÐµÐºÑĤ":2620,"Ð½ÐºÐ¾":2621,"µÐ´Ðµ":2622,"ĠÐ´ÐµÑĢÐ¶Ð":2623,"ĠÐºÐ°ÑĩÐµÑģÑĤÐ²Ð":2624,"ĠÑĩÐ¸ÑģÐ»Ðµ":2625,"ĠÐĿÐ¸Ðº":2626,"ĤÐ¾Ð¹":2627,"ĠÑĢÐ°Ð±Ð¾ÑĤÑĥ":2628,"ĠÐ³ÑĢÐ°Ð¶Ð´Ð°":2629,"ĠÐºÐ¾Ð½ÑĨÐµ":2630,"ĠÐ¿ÑĢÐµÐ´ÑģÑĤÐ°Ð²Ð¸":2631,"ÑĤÐºÑĥ":2632,"Ð¾Ð¶Ð¸Ð´Ð°":2633,"Ð¾Ð¼Ð¸Ð½Ð°":2634,"ÑĤÐµÐ»ÑĮÐ½Ð¾ÑģÑĤÐ¸":2635,"Ð´Ð¾ÑģÑĤÐ°":2636,"ed":2637,"[/":2638,"Ð´Ð¾Ð±":2639,"ĠÐ¶ÐµÐ½ÑīÐ":2640,"ÑĤÐ¾Ð¹":2641,"Ġh":2642,"ĠÐ´Ð¾ÐºÑĥ":2643,"Ð¼Ð¾Ð¶Ð½Ð¾":2644,"ÑĢÐ°Ð±Ð¾ÑĤÐ°":2645,"ÐºÐ°Ð·":2646,"ÑĤÐµÐ»ÐµÐ¼":2647,"ĠÑģÑĤÐ°Ð»Ð¾":2648,"ĠÐŀÑĤ":2649,"Ð½ÐµÑĪ":2650,"ĠÑģÐ°Ð¼Ð¾Ð¼":2651,"ÑģÐ½Ð¾":2652,"ĠÑĢÐ°Ð´Ð":2653,"ĠÐ²Ð´ÑĢÑĥÐ³":2654,"ĠL":2655,"ĠÑĢÐ°Ð±Ð¾ÑĤÐ°ÐµÑĤ":2656,"ĠÐ±Ð»Ð°Ð³":2657,"Ð¼Ð¾ÑģÑĤÑĮ":2658,"ÑĩÐµÑģÐºÐ¾Ð³Ð¾":2659,"ĠÐ±ÐµÑĢÐµ":2660,"ĠÐĿÐµÑĤ":2661,"ĠÑĤÐ°ÐºÐ¾Ð³Ð¾":2662,"17":2663,"ĠÐ½ÐµÐ»ÑĮÐ·Ñı":2664,"ĠÑĤÐ¾Ð²Ð°":2665,"ĠÐ¼Ð¸Ð½ÑĥÑĤ":2666,"000":2667,"Ð¾Ð±Ð¾Ð¹":2668,"Ð½Ð¸ÑĤÐµÐ»ÑĮ":2669,"Ð»ÐµÐ":2670,"ĠÑģÑĤÑĢÐ°Ð½Ñĭ":2671,"ÑħÑĥ":2672,"ĠÑģÐ¼Ð":2673,"Ð¶Ð´Ñĭ":2674,"https":2675,"ĠÐµÐ²":2676,"Ð¾Ð»Ð¾Ð²":2677,"int":2678,"ĠÐ°Ð½":2679,"ĠÐ¼Ð°ÑĤ":2680,"ĠÐµÐ´Ð¸Ð½":2681,"ĠÐ¼ÐµÑģÑı":2682,"ÑĢÐ¾ÑģÑĤÐ¾":2683,"ĠÑģÐ¿Ð¾ÑĢ":2684,"ĠÐ½Ð°ÑĢÑĥ":2685,"ĠÐ¿Ð¾Ð½ÑıÐ»":2686,"ĠÐ·Ð°Ð²":2687,"Ð»Ð°Ð´":2688,"ÐŀÐ½":2689,"ĠÐŁÐ¾Ð´":2690,"ĠÐ¿Ð¾ÑģÑĤÐ¾Ñı":2691,"ĠÐŁÐ¾ÑģÐ»Ðµ":2692,"Ġ33":2693,"ĠÐĽÑİ":2694,"ÑĢÐµÐ½Ð¸Ñı":2695,"ĠÐ´ÑĥÐ¼Ð°":2696,"ĠÐ¼ÐµÐ½ÑĮÑĪÐµ":2697,"ĠÑģÐ°Ð¼Ð°":2698,"¸Ð¼ÐµÑİ":2699,"Ð¸Ð¼ÐµÑİ":2700,"ĠÐ²Ð°ÑĢÐ¸Ð°Ð½":2701,"ĠÐ´Ð¾Ð³":2702,"ĠÐ±ÑĭÑģÑĤÑĢÐ¾":2703,"Ð°ÑĢÐ¼Ð":2704,"Ð½ÐºÐµ":2705,"ĠÐ¾Ñħ":2706,"ĠÐ´ÑĢÑĥÐ³Ð¸Ðµ":2707,"ĠÐ´Ð°Ð»ÑĮÑĪÐµ":2708,"ĠÐºÐ²Ð°ÑĢÑĤÐ¸":2709,"ĠÐ¼ÐµÑģÑĤÐµ":2710,"Ð²Ð»ÑıÐµÑĤ":2711,"µÐ½Ð½ÑĭÐ¹":2712,"ÑĪÐµÐ¹":2713,"ĠÐ¸Ð¼ÐµÑİ":2714,"ÑĨÐ¸Ð¹":2715,"ĠÐ¿ÑĢÐ°ÐºÑĤÐ¸":2716,"°ÑĦÐ":2717,"ĠÑĩÐµÑģ":2718,"ĠÐ½ÐµÐ±":2719,"ĠÑĤÑĭÑģÑıÑĩ":2720,"ÐºÐ¾Ð»ÑĮÐºÐ¾":2721,"es":2722,"ĠÐºÐ¾Ð¼Ð¿Ð°Ð½Ð¸Ð¸":2723,"Ð»Ð°Ð´Ð¸":2724,"ĠÑĩÑĥÑĤÑĮ":2725,"ĠÐ°ÑĢÐ¼Ð":2726,"ÑĢÐ¾Ð²Ð":2727,"ĠÐ·Ð²":2728,"ÑĥÑĪÐºÐ¸":2729,"th":2730,"Ġre":2731,"ĠÐ¨Ð":2732,"ĠÐ´ÐµÑĤÐµÐ¹":2733,"ĠÐ¿ÑĢÐ¾Ð´Ñĥ":2734,"ÑģÑĭÐ»":2735,"µÑĢÐ¼Ð":2736,"Ð¾Ð¿Ð¸":2737,"ÑĩÐ°ÑģÑĤÑĮ":2738,"ÑģÑĤÑĢÑĥÐº":2739,"ĠÐ¾Ð±ÑĢÐ°Ð·Ð¾Ð¼":2740,"ÑĢÐµÑħ":2741,"ĠÑģÐ²Ð¾Ð¸Ð¼":2742,"µÑģÑĤÑĮ":2743,"ĠÐ¿ÑĢÐ¸ÑĩÐ¸":2744,"ĠÐĳÑĥ":2745,"ĠÐľÐ½Ðµ":2746,"ÑĩÐ¸ÑĤÑģÑı":2747,"ĠÐĽÑĥ":2748,"ĠÑģÐ»Ð¸ÑĪÐºÐ¾Ð¼":2749,"¸Ð°Ð»Ð¸":2750,"ĠÐ½Ð°ÑģÐµ":2751,"ĠÐŁÐ°":2752,"ĠÐ½Ð°Ð¹":2753,"ĠÐºÐ°Ð¶ÐµÑĤÑģÑı":2754,"Ð¿Ð¸ÑĤÐ°":2755,"ĠÑĥÐ·":2756,"ÑĢÑĥÐ¶Ð":2757,"ĠÐ¸Ð¼ÐµÐµÑĤ":2758,"ĠÑģÐ»ÑĥÑĩÐ°Ð¹":2759,"Ð¾ÑĢÑĥ":2760,"ĠÐ¼Ñı":2761,"ĠÐ¿Ð¾Ð·Ð²":2762,"ĠÐ½Ð°ÑĢÐ¾Ð´":2763,"ĠÐ¿Ð°ÑĢÐ°":2764,"ĠÐ²ÑĭÐ¿Ð¾Ð»":2765,"ĠÐ²ÑģÑĤÐ°":2766,"ĠÐ´Ð²ÐµÑĢ":2767,"ĠÐ¼Ð°Ð»ÐµÐ½ÑĮ":2768,"ĠÑĥÑĢÐ¾Ð²":2769,"Ð²Ð°ÑİÑĤÑģÑı":2770,"Ð½ÑıÐµÑĤÑģÑı":2771,"30":2772,"ma":2773,"ÐŁÐ¾Ñģ":2774,"ÑĭÑ":2775,"ĠÑģÐ¾Ð±Ð¸ÑĢÐ°":2776,"Ð´ÐµÑĢÐ¶Ð¸":2777,"ÐºÑĢÐµ":2778,"Ð»Ð°Ð½":2779,"ĠÐ¾ÑĪÐ¸Ð±":2780,"Ð¾Ð²Ð¸Ñĩ":2781,"ÑĪÐ¸Ðµ":2782,"ĠÐ±Ð»":2783,"ÑģÐ¸Ð»Ð¸":2784,"ĠÑĤÑĢ":2785,"ÑīÐµÐ½Ð¸Ñı":2786,"ĠÑĤÑĢÐµÐ±":2787,"Ð´ÐµÑĢÐ¶":2788,"Ð½Ð¸ÑĨÑĥ":2789,"Ð²Ð¾ÑĢ":2790,"ĠÐ¼Ð¸ÑĢÐ°":2791,"ĠÐ·Ð°Ð±":2792,"ĠÐ¿Ð°ÑĢÑĥ":2793,"ĠÐĶÐ»Ñı":2794,"ĠÐĸÐ":2795,"ĠÑĩÐ°ÑģÑĤ":2796,"ĠÑĢÐ°Ð±Ð¾ÑĤÐ°ÑĤÑĮ":2797,"ÐľÐ½Ðµ":2798,"ÑĥÐµÑĤ":2799,"Ð¿Ð¸Ñģ":2800,"Ġ36":2801,"ĠÐ·Ð°Ð½Ñı":2802,"ĊĠĠ":2803,"ĠÐºÑĢÐ°Ð¹":2804,"ÑīÐ°":2805,"ĠÐ·Ð²Ñĥ":2806,"ĠÐ¿Ð¾Ð²ÐµÑĢ":2807,"ame":2808,"ĠÐ´ÑĢÑĥÐ³Ð°":2809,"ĠÐ¶Ð¸ÑĤÑĮ":2810,"and":2811,"Ġ34":2812,"mp":2813,"ĠÐ½Ð°Ð¹ÑĤÐ¸":2814,"Ð¾Ð»Ñĥ":2815,"ĠÐ´ÑĥÐ¼Ð°Ñİ":2816,"¾ÑħÐ¾":2817,"ÑĭÑĤ":2818,"ĠÐ²Ð¸Ð½":2819,"ĠE":2820,"ĠÐ±ÑĥÐ´ÑĤÐ¾":2821,"Ð°Ð±":2822,"ĠÐ½ÐµÐ¾Ð±ÑħÐ¾Ð´Ð¸":2823,"°Ð¼ÐµÑĢÐ¸ÐºÐ°Ð½":2824,"Ð½ÑĥÐ»Ð°ÑģÑĮ":2825,"ÑģÐ°Ð½Ð´":2826,"µÑĦÐ":2827,"Ð²ÐµÑģÑĤÐ¸":2828,"ĠÐ¡Ñĥ":2829,"ÑģÐµÑĢ":2830,")*":2831,"ÑĤÐ°Ñı":2832,"Ð½Ð¸ÐºÐ¾Ð¼":2833,"Ð¸Ð´":2834,"ĠÐ»ÑİÐ±Ð¾Ð²":2835,"ĠÐ¸Ð³ÑĢÐ°":2836,"ÑİÑģÑĮ":2837,"ĠÐ·Ð½Ð°ÐºÐ¾Ð¼":2838,"ĠÐ²ÑĭÐ·":2839,"ÑħÐ¸":2840,"Ð½Ð°Ð¼Ð¸":2841,"ÑĢÐµÑĪÐ":2842,"ÑĤÐµÐ»ÑĮÑģÑĤÐ²Ð¾":2843,"ĠÐ²ÐµÐ»Ð¸":2844,"Ġj":2845,"ĠÐ¾ÑĢÑĥ":2846,"ĠÐ¼Ð¾Ð»Ð¾Ð´":2847,"ĠÐ¾Ð´Ð½Ð¾":2848,"ĠÐ´Ñĭ":2849,"ÑĤÐ±":2850,"ÑĩÐ½Ð¾Ð³Ð¾":2851,"ĠÐ½ÐµÐ·Ð°":2852,"50":2853,"ÑĤÐ¸ÑĤÐµ":2854,"ĠÐ¿Ð¸ÑģÐ°":2855,"ĠÐºÑĢÑĥÐ¿":2856,"ÑĤÐ¸Ð»Ð°":2857,"Ð»ÑĥÐ¹":2858,"rt":2859,"ĠÐ¿Ð¾Ð¶Ð°":2860,"ĠÐ½Ð°ÑģÑĤÐ¾ÑıÑīÐ":2861,"Ð¾Ð»Ñı":2862,"ĠÑĦÐ¸Ð½Ð°":2863,"Ð½Ð¸Ð·":2864,"Ġx":2865,"ÑĩÐ¸Ñģ":2866,"ĠÑĤÐ°ÐºÐ¸Ð¼":2867,"ÐļÐ¾Ð³Ð´Ð°":2868,"ĠÐŀÐ´Ð½Ð°ÐºÐ¾":2869,"ÑĢÐµÐ¼ÐµÐ½":2870,"ex":2871,"ÑĩÐµÑģÐºÐ¸Ðµ":2872,"ÐŀÑ":2873,"ÑĩÐ¸Ðµ":2874,"??":2875,"Ð²Ð»ÐµÐ½Ð¸Ðµ":2876,"Ð¾Ð»Ð¾Ð³Ð¸":2877,"ÑĪÐµÐ":2878,"ĠÐ²Ð¾Ðº":2879,"ÑģÑĤÐ²Ð¸Ñı":2880,"ĠÑĥÐ²ÐµÑĢÐµ":2881,"ĠÑģÑĥÐ¼":2882,"ĠÐ¾Ð¿ÑıÑĤÑĮ":2883,"ĠÐ¿Ð¾Ð»ÑĮÐ·Ð¾Ð²Ð°":2884,"ĠÐŁÑĥ":2885,"ĠH":2886,"ĠÐºÐ°ÑĢÑĤÐ¸":2887,"ĠÐ´Ð¾Ð±Ð°":2888,"°ÑĪÐµ":2889,"Ð½ÑıÑı":2890,"ĠÐ¼ÐµÑĩ":2891,"ĠÐ¼ÐµÐ´":2892,"Ð´Ð°Ð»Ð¸":2893,"ÑģÑĤÑĢÐ¾Ð":2894,"ĠÐ½Ð°ÑĢ":2895,"ul":2896,"Ġ31":2897,"Ð¾Ð²Ð°Ð½Ð¸Ðµ":2898,"Ð´ÐµÑĪÑĮ":2899,"ÑĪÐµÐµ":2900,"Ð»ÐµÐ½Ð½Ð¾":2901,"ĠÑħÐ¾Ð·Ñı":2902,"ĠÑģÐ¿ÑĢÐ°":2903,"ÐºÐ¸Ð¼Ð¸":2904,"ĠÐ¡Ð¸":2905,"ÑĢÐ°Ð¼Ð¸":2906,"ĠÐĳÐµ":2907,"ÐłÐ°":2908,"ÑĢÑĥÐµÑĤ":2909,"ĠÐ·Ð°Ð¿Ð°":2910,"¾ÑĢÐ¾ÑĤ":2911,"ÐŀÑĤ":2912,"ÑħÐ¾Ð²":2913,"ĠÐ¾Ð±ÑıÐ·Ð°":2914,"Ð¾Ð·Ð°":2915,"ĠÐĵÐ¾Ñģ":2916,"ĠÑĤÑĢÐ°Ð½":2917,"Ð»Ð¾Ð½":2918,"ĠÐ¼Ð°Ð»Ð¾":2919,"ĠÐ²ÑĭÐ¿":2920,"ĠÑĩÐµÑĤÑĭ":2921,"Ġ199":2922,"ĊĠĠĠĠĠĠĠĠĠĠĠĠĠĠĠ":2923,"ĠÐ´Ð¾ÑģÑĤÐ°ÑĤÐ¾ÑĩÐ½Ð¾":2924,"ĠÐºÑĥÐ¿Ð":2925,"ĠÑģÑĤÐ°Ð»Ð¸":2926,"ĠÑįÐºÐ¾Ð½Ð¾Ð¼Ð¸":2927,"ÑģÐ¾ÑĢ":2928,"Ð§Ð":2929,"ÑĤÑĥÑĢÑĭ":2930,"ĠÐ¦Ð":2931,"¸ÐºÐ°":2932,"ĠÐ¶Ð¸Ð²":2933,"ĠÐ¼Ð¾Ñı":2934,"ĠÐķÐ³Ð¾":2935,"ĠÑģÐ¸Ð»ÑĮÐ½Ð¾":2936,"ĠÐºÐ¾Ð½ÑĤÑĢ":2937,"ĠÐ¿Ð°Ñģ":2938,"ĠÐ¼Ð¸Ð»Ð»Ð¸":2939,"Ð¾ÑĨÐµ":2940,"ÑĭÐ»":2941,"ĠÐ¿ÐµÑĢÐ¸":2942,"ÐĻ":2943,"__":2944,"Ð²Ð¾Ñģ":2945,"ĠÐ¿Ð¸ÑĪ":2946,"ĠÐ¿Ð¾Ð½Ð¸Ð¼Ð°Ñİ":2947,"Ð°Ð¼ÐµÑĢÐ¸ÐºÐ°Ð½":2948,"ĠÑĨÐµÐ½":2949,"ĠÑģÐ¾Ð³Ð»Ð°":2950,"Ð¿ÐµÑĢÐ°":2951,"Ð½Ð²":2952,"ĠÐ¾Ð±ÐµÑģ":2953,"ĠÑĥÐ±Ðµ":2954,"ĠÑģÐ¿Ð¸":2955,"ĠÐ¿ÑĢÐ¸Ð³":2956,"ĠÐ¼Ð°Ð³Ð°":2957,"ĠÐ¼ÑĭÑģ":2958,"ĠÐ°Ð±":2959,"ĠÐ¾Ð±Ð½Ð°":2960,"¸ÑĨÐµÐ¹":2961,"Ð¿ÑĢ":2962,"ĠÐĺÐ½":2963,"ĠÐ·Ð°Ð½Ð¸Ð¼Ð°":2964,"ĠÐ¾Ð³ÑĢÐ°":2965,"¾ÑīÐµ":2966,"ĠÐ½Ð°Ð¿ÑĢÐ°Ð²":2967,"ĠÑĤÐµÐº":2968,"ĠÑģÐ»Ð¾Ð²Ð°Ð¼":2969,"ÐºÑĤÐ¾Ð²":2970,"¸ÑĤÑĭ":2971,"ĠÐŁÐµÑĢ":2972,"ÑĩÐ¸ÑĤÑĭ":2973,"ĠÐļÐ¾Ð½":2974,"Ð»ÑıÑĢ":2975,"ĠÐ½Ð°ÑĩÐ¸Ð½Ð°":2976,"ĠÑĤÐ¾Ð½":2977,"ĠÑģÑİ":2978,"ĠÐ²Ð¾Ð´":2979,"µÐ½Ð½Ð¾Ð¹":2980,"ÑĤÐ¾ÑĢÐ¾Ð²":2981,"ĠÐ¾ÑĤÐ´Ðµ":2982,"Ð»ÑĮÐ½ÑĭÑħ":2983,"ĠÐĺÐ»Ð¸":2984,"Ð¶Ð°Ð¹":2985,"Ð½Ð°Ð»":2986,"ĠÐ¿Ð¾Ðµ":2987,"ĠÐ¿Ð¾ÑıÐ²Ð¸":2988,"ĠÐ²Ð¿Ð¾Ð»Ð½Ðµ":2989,"Ð¼Ð¸Ð½Ð¸ÑģÑĤÑĢÐ°":2990,"ĠÑģÑĢÐ°Ð²":2991,"ĠÐ·Ð°ÑıÐ²Ð¸Ð»":2992,"24":2993,"ÑĢÐ°ÑĤÑĮÑģÑı":2994,"ot":2995,"ĠÑģÐ½Ð¸":2996,"Ð´ÐµÐ»Ð°":2997,"ĠÐ´ÐµÐ¹ÑģÑĤÐ²Ð¸ÑĤÐµÐ»ÑĮÐ½Ð¾":2998,"ow":2999,"Ð¼Ð¾Ñģ":3000,"ĠÑĢÐ°Ð·Ð»Ð¸":3001,"Ð¼ÐµÐ½ÑĮ":3002,"ĠÐ¿ÐµÑģ":3003,"ĠÑĤÑĥÐ´Ð°":3004,"ĠÑĥÐ»ÑĭÐ±":3005,"ĠÐ±ÑĥÐº":3006,"ĠÐ³Ð¾Ð»Ð¾Ð²Ñĥ":3007,"ĠÐ¿ÑĢÐ¾Ð²ÐµÑĢ":3008,"ÑģÑĤÐ°Ð²":3009,"Ġ37":3010,"ĠÐ²Ð½Ðµ":3011,"Ð¾Ð¼ÐµÑĢ":3012,"ÑĩÐ½Ð°Ñı":3013,"ĠÑģÐºÐ°Ð·Ð°Ð»Ð°":3014,"ĠÐ¿Ð¾Ð´Ð":3015,"ĠÐ²Ð¸Ð´ÐµÐ»":3016,"ĠÐ³ÐµÐ½Ðµ":3017,"ĠÐĶÑĥ":3018,"ĠÐ±ÐµÐ·Ð¾Ð¿Ð°Ñģ":3019,"ĠÑģÑĢÐµÐ´Ð¸":3020,"ĠÑģÐ»Ð¾Ð¶":3021,"ĠÐ¾ÑĨÐµ":3022,"ĠÐ²ÑĤÐ¾ÑĢÐ¾Ð¹":3023,"ĠÐ¡ÐµÑĢÐ":3024,"ĠÑħÐ¾ÑĤÐµÐ»":3025,"ĠÐ·Ð°ÑĩÐµÐ¼":3026,"25":3027,"ÑģÐ»ÐµÐ´Ð¾Ð²Ð°":3028,"Ð¾ÐºÐ¾":3029,"ĠÑģÑĥÐ´ÑĮ":3030,"um":3031,"ĠÐ¸Ð´":3032,"ĠÐ²ÐµÑģ":3033,"ĠÐ°Ð¼ÐµÑĢÐ¸ÐºÐ°Ð½":3034,"ĠÐ¼Ð¾ÐµÐ¹":3035,"ÑĢÐ¸Ðº":3036,"ĠÐ´Ð½ÐµÐ¹":3037,"ÐĴÐµ":3038,"Ð»ÐµÐ·":3039,"ĠÐ²Ð°Ð¶":3040,"ĠÐľÐ°ÑĢ":3041,"ÐºÐ°Ðº":3042,"ĠÑĤÐ¸Ð¿Ð°":3043,"ÑĤÑĭÐ":3044,"ÑĤÑĭÐµ":3045,"ĠÐ²ÑĭÐ³Ð»Ñı":3046,"Ð»Ð°Ñħ":3047,"ĠÑĨÐµÐ»":3048,"ÑĤÐ¸ÐºÐ¸":3049,"Ð°ÑĢÐµ":3050,"ĠÐ¼Ð½Ð¾Ð¹":3051,"ÐºÐ¾Ð»ÑĮ":3052,"¸ÑĨÐ¾":3053,"Ð´Ð°ÑİÑĤ":3054,"ĠÐ£ÐºÑĢÐ°Ð¸Ð½Ñĭ":3055,"pp":3056,"ÑĨÐ¸Ð¾Ð½":3057,"Ġ[":3058,"ĠÐ¿ÑĢÐ¾Ð³":3059,"ÑĢÐ¾Ð²Ð°Ð½Ð¸Ñı":3060,"Ð´Ð¾Ñħ":3061,"Ð²Ð°Ð»Ð¸ÑģÑĮ":3062,"ĠÐĲÐ»ÐµÐºÑģÐ°Ð½Ð´":3063,"ĠÑĥÑĩÐ¸":3064,"ĠÐ¿Ð¾ÑĪ":3065,"ĠÐºÐ¾ÑĤÐ¾ÑĢÑĥÑİ":3066,"ĠÐºÐ¾ÑĤÐ¾ÑĢÐ¾Ðµ":3067,"Ð¾Ð´Ð¸Ð»":3068,"Ð½ÐµÐ²":3069,"Ð¾Ð²Ð°ÑĤÑĮÑģÑı":3070,"ÑĢÐ°Ð¼":3071,"ĠX":3072,"ĠÑįÑĤÐ¾Ð¼Ñĥ":3073,"ĠÑĤÐ¾Ð±Ð¾Ð¹":3074,"ĠÑĢÐµÐ°Ð»Ð¸":3075,"ĠÐ¿Ð¾Ð´Ð½Ñı":3076,"Ð·Ð°Ð»":3077,"Ð¢Ðµ":3078,"ĠÐ±ÑĢÐ¾ÑģÐ":3079,"Ġ)":3080,"ĠÑĢÐµÑĪÐµÐ½Ð¸Ðµ":3081,"Ð³Ð¾ÑĤÐ¾Ð²":3082,"Ð§ÐµÐ¼Ñĥ":3083,"Ġr":3084,"Ð½Ð°Ð»Ð¸":3085,"ĠÑģÐ²ÑıÐ·Ð¸":3086,"¾ÑĤÑĭ":3087,"ĠÑĨÐ²ÐµÑĤ":3088,"ĠÐ·Ð½Ð°ÐµÑĤ":3089,"Ð´Ð¾ÑĢ":3090,"ĠÐ´ÐµÐ½ÐµÐ³":3091,"Ð¾Ð»ÑĮÑĪ":3092,"Ġy":3093,"ĠÐ±Ð¾Ð»ÑĮÑĪÐ¾Ð¹":3094,"Ð¸Ð½Ð°":3095,"ĠÑĥÐ¿ÑĢÐ°Ð²":3096,"Ð»ÐµÐ½Ð½ÑĭÐ¹":3097,"----":3098,"ÑĨÐ¾Ð²":3099,"ĠÑĢÐ°Ð´Ð¸":3100,"Ġ38":3101,"ÑĩÐµÐ½ÑĮ":3102,"ĠÐ²Ð¾Ð·ÑĢÐ°":3103,"Ð·ÑĭÐ²Ð°ÐµÑĤ":3104,"ĠÑģÐ²ÐµÑĢ":3105,"ĠÐ¿Ð»Ñİ":3106,"ĠÐ·Ð°ÐºÐ»Ñİ":3107,"ĠÑĥÑģÐ¿Ð":3108,"Ð¼ÐµÐ½ÑĤÑĭ":3109,"ÑģÐ¸Ñİ":3110,"ĠÐ¿Ð¾ÑĢÐ°":3111,"ĠÑĢÐµÐ·":3112,"ĠÐ¾Ð³ÑĢÐ¾Ð¼":3113,"Ð°Ð¿":3114,"ĠÑĥÐ¼Ðµ":3115,"µÑħÐ°":3116,"¾ÑīÑĥ":3117,"ĠÑģÐ¾ÑħÑĢÐ°":3118,"ĠÑģÐ¼Ðµ":3119,"ĠÐ½Ð°ÑĩÐ°Ð»Ð°":3120,"Ð»ÑĭÐ":3121,"Ð´ÑĥÑīÐ":3122,"Ð»ÑĭÐµ":3123,"Ð»ÐµÐ½Ð¸Ñİ":3124,"ÑģÑĤÑı":3125,"ĠÐ¢Ð¾Ð»ÑĮÐºÐ¾":3126,"ĠÐľÐµ":3127,"ÑĮÐµÐ·":3128,"ĠÐ²ÐµÑĩÐµÑĢ":3129,"Ð³Ð¾Ñģ":3130,"ĠÐ¿Ð¾Ð»Ðµ":3131,"ĠÐ¿Ð¾Ð»ÑĮÐ·":3132,"ÑĤÐµÐ»ÑĮÐ½ÑĭÐ¹":3133,"ĠÐ¸ÑģÐºÐ»Ñİ":3134,"ĠÐ²Ð¸Ð´":3135,"Ð´Ð¶Ð":3136,"ĠÐ¿Ð¾Ð½Ñı":3137,"Ð¾ÐºÑĢÐ°":3138,"ÑģÐµÐ´Ð°":3139,"ÑģÑĤÐ²ÑĥÐµÑĤ":3140,"ĠÐłÐ°Ð·":3141,"ol":3142,"Ð½ÑĥÐ»Ð¸":3143,"Ð»ÐµÐ½Ð¸Ð¸":3144,"ÑĮÐµÑĢ":3145,"ĠÑĪÑĤÐ°":3146,"ÑĤÐµÑĢÐ¸":3147,"ĠÐ¿ÑĢÐ¾ÐµÐº":3148,"ÑĢÑĭÐ¹":3149,"°Ð":3150,"ĠÑģÐ»ÐµÐ´":3151,"ĠÑģÐ¿ÐµÑĨÐ¸Ð°Ð»ÑĮ":3152,"Ð½Ð°ÑĢÐ¾Ð´":3153,"ĠÐ°Ð»":3154,"ĠÑĩÑĤÐ¾Ð±":3155,"ÐµÑīÐ":3156,"Ð»ÑĮÐ½Ð¾Ð¹":3157,"ĠÐ²Ð¾Ð·Ð¼Ð¾Ð¶Ð½Ð¾":3158,"ĠÐ¿Ð»Ð¾ÑīÐ":3159,"qrt":3160,"ĠÑģÐ°Ð¼ÑĭÐ¹":3161,"as":3162,"Ð·Ð°Ñħ":3163,"Ð¶Ð¸ÑĤ":3164,"Ð¿Ð¾ÑĢÑ":3165,"ĠÐ¼ÐµÐ½ÐµÐµ":3166,"Ð¿Ð¾ÑĢÑĤ":3167,"°ÑĨÐ¸Ð¾Ð½Ð°Ð»ÑĮ":3168,"ĠÐ¾Ð´Ð½Ð°ÐºÐ¾":3169,"ĠÐ¾Ð±ÑĬÑı":3170,"ĠÐºÐ¾Ð¼Ñĥ":3171,"ĠÐ¿ÑĢÑıÐ¼Ð¾":3172,"ĠÑģÐ°Ð¼Ð¾Ðµ":3173,"ĠV":3174,"ĠÐ¼Ð¾Ð´Ðµ":3175,"ĠÐľÐ¸":3176,"ÑģÐ¾Ð¼":3177,"ĠÑĥÑģÑĤÐ°Ð½Ð¾Ð²":3178,"ĠÑĤÑıÐ¶Ðµ":3179,"Ð¼Ð¸ÑĢ":3180,"ĠÐ¾ÐºÐ¾Ð½":3181,"ÑĩÐ°Ñı":3182,"ÑħÐµ":3183,"ĠÐ´ÐµÑı":3184,"ĠÐºÐ¾ÑĤÐ¾ÑĢÐ¾Ð¼":3185,"īÑĥÑİ":3186,"ĠÑģÑģÑĭÐ»":3187,"ĠÐ¿ÑĢÐ¾Ð¸Ð·Ð":3188,"Ġ?":3189,"ĠÑĢÐ°Ð½ÑĮ":3190,"ĠÐ¼Ð¾Ð¶Ð":3191,"ĠÑģÐ¾Ð´ÐµÑĢÐ¶Ð":3192,"ĠÐľÑĥ":3193,"ĤÐ¾Ð±Ñĭ":3194,"ÑĤÐ¾Ð±Ñĭ":3195,"ĠÐ½Ð°Ð±Ð»Ñİ":3196,"ÑĤÐ°ÐºÐ¸":3197,"Ġk":3198,"ÑĢÐ¸Ð½":3199,"ĠÐĳÐ°":3200,"ĠÐ¿ÑĢÐ¾ÑĤ":3201,"ĠÑĢÐµÑģ":3202,"ĠÑģÐµÑĢÐ´ÑĨÐµ":3203,"Ð´ÑĳÑĤ":3204,"ÑıÑĨ":3205,"ĠÐ±Ð¾Ðµ":3206,"Ġ194":3207,"ri":3208,"Ð±ÑĢÐµ":3209,"ĠÑģÐ¸Ð¼":3210,"ĠÐ¶ÑĥÑĢ":3211,"ÐºÐµÑĤ":3212,"Ð²Ð°Ð¹ÑĤÐµ":3213,"ĠÑĢÐ°Ð½ÑĮÑĪÐµ":3214,"ĠÐ²ÐµÑĢÐ¾":3215,"pt":3216,"ĠÐ¿ÐµÑĢÑģ":3217,"ĠÐ´Ð¾ÑģÑĤÑĥ":3218,"ĠÐĴÐ»Ð°Ð´Ð¸":3219,"ĠÐ¿Ð¾Ð²Ð":3220,"Ġu":3221,"ĠÐ¼Ð¾Ð¸":3222,"Ð½Ð¸ÑĤÐµ":3223,"od":3224,"ĠÐ¿ÑĢÐ¸Ð½ÑĨÐ¸":3225,"Ð½Ð´Ñĥ":3226,"Ð·Ð¾ÑĢ":3227,"ĠÐ´Ð¾ÑģÑĤÐ¸":3228,"µÐ½Ð½ÑĭÑħ":3229,"°ÑĢÐ°Ðº":3230,"ĠÐ·Ð°ÑģÑĤÐ°":3231,"Ð½Ð¾Ð²ÑĮ":3232,"ĠÐ´Ð¾Ð»Ð³Ð¾":3233,"ĠÐ½Ð¸Ð¼Ð¸":3234,"ÑĤÐ°Ð¹":3235,"Ð´ÐµÐ»ÑĮ":3236,"Ð¿ÑĥÐ±Ð»Ð¸":3237,"ÑĤÐ°ÐµÑĤ":3238,"ĠÐºÑĢÐ°ÑģÐ¸":3239,"ÑĢÐ°ÑĤÐ½Ð¾":3240,"ĠÐ±Ð°Ð±":3241,"ĠÐ¿ÑģÐ":3242,"ĠÐ¿ÑĢÐ¾Ð±Ð»ÐµÐ¼Ñĭ":3243,"ÑĢÐµÐ½ÑĮ":3244,"ĠÑģÑĤÐ¾ÑĢÐ¾Ð½Ñĥ":3245,"ĠÐ½ÐµÑĥ":3246,"Ġ39":3247,"Ð¼Ð°ÑĤÑĢÐ¸":3248,"¸ÑģÐ°":3249,"ĠÐŁÑĢÐ":3250,"ÑģÑĤÐ²ÑĥÑİÑīÐ":3251,"ĠÐ²Ð¾ÐºÑĢÑĥÐ³":3252,"ÑĤÑĥÑĢ":3253,"ĠÐ¿Ð°Ð»ÑĮ":3254,"ĠÐ¿Ð¾Ð¿Ð°":3255,"Ð¾ÑĤÐµ":3256,"ĠÑĩÐµÐ¼Ð¿Ð¸":3257,"Ð´Ð¶":3258,"ÑĢÐ¸Ñģ":3259,"ĠÐºÐ»Ñĥ":3260,"ÑĪÐ°Ñı":3261,"ĠÐ¿Ð¾Ð·Ð²Ð¾Ð»":3262,"ĠÐ¿ÑĢÐ¾ÑĦÐµÑģ":3263,"Ð¼Ð¾Ð½":3264,"ĠÑģÐµÐ½ÑĤ":3265,"ĠÑģÐ¾Ð¿":3266,"Ð²Ð¾Ñĩ":3267,"Ð´ÐµÑģ":3268,"ĠÑģÐ»Ð¾Ð²Ð½Ð¾":3269,"µÐ½ÑĤÐ¾Ð²":3270,"ÑĤÐ¾Ð¼Ð¾Ð±Ð":3271,"Ð»Ð¸Ð¹":3272,"ĠÑĥÐ·Ð½Ð°":3273,"ĠÐ°Ð¿":3274,"/.":3275,"ĠÐ¿ÑĢÐµÐ´Ð¿ÑĢÐ¸":3276,"ĠÐ´Ð¾ÐºÐ°":3277,"ÐĺÐ·":3278,"ÐŁÐ¾Ð´":3279,"ĠÐ²Ð¾Ð¹Ð½Ñĭ":3280,"ĠÑģÑĩÐ°ÑģÑĤÑĮ":3281,"22":3282,"Ð¶ÐµÑĤ":3283,"ĠÐ¢Ð¾":3284,"ĠÑģÐºÐ¾ÑĢÐµÐµ":3285,"ĠÐ¿ÑĢÐ°Ð²Ð´Ð°":3286,"ĠÑģÑĩÐµÑĤ":3287,"Ð½ÐµÑĢÐ³Ð":3288,"ĠÑģÐ¾Ð¾Ð±ÑīÐµ":3289,"ĠÐ³Ð¾Ð²Ð¾ÑĢÐ¸ÑĤÑĮ":3290,"ÑĢÐ¾Ð²Ð°Ð»":3291,"ÑĢÑĥÑģ":3292,"Ð¾ÑģÐ":3293,"¸ÐµÐ¼":3294,"Ð¾Ð²Ð°Ð»Ð°":3295,"ÑģÑĤÐ¾Ð¹":3296,"âĢĵ":3297,"!!!":3298,"Ð¾Ð¶Ñĥ":3299,"ĠÐ¿ÑĢÐ¸Ð·":3300,"ÑģÐµÐ¹":3301,"Ð¾Ð½ÑĮ":3302,"ĠÑģÑĤÐ°Ð»Ð°":3303,"ĠÑĤÐµÐ¿":3304,"ĠÐ¾Ð±ÐµÑģÐ¿Ðµ":3305,"Ð·ÐµÑĢ":3306,"Ð²Ð¸Ð»Ð°":3307,"ÑĤÐµÐ»":3308,"ĠÐ¿ÐµÑĢÐµÐ´Ð°":3309,"ĠÐ¼Ð¸ÑĢÐµ":3310,"ĠÐ½Ð°ÑĩÐ°Ð»":3311,"Ð²Ð»ÐµÐ½Ð¸Ñı":3312,"ĠÑĪÑĥ":3313,"ĠÐ¼Ð°ÑĤÐµÑĢÐ¸Ð":3314,"ĠÐ¼ÐµÑģÑĤÐ°":3315,"ĠÐ¿ÑĢÐ¾Ð±Ð»ÐµÐ¼Ð°":3316,"°ÑĦ":3317,"ĠÑģÐ¿Ð¾ÐºÐ¾Ð¹":3318,"°ÑĨÐ¸Ð¾Ð½":3319,"ĠÑĤÐ¾Ð¹":3320,"ĠÐ²Ð¾Ð·Ð¼Ð¾Ð¶Ð½Ð¾ÑģÑĤÑĮ":3321,"ĠÐ¼ÑĥÐ·Ñĭ":3322,"ĠÐłÐ°Ñģ":3323,"ĠÑĥÑģÐ¿Ðµ":3324,"Ð´ÑĢÐ°":3325,"Ġ(-":3326,"ĠÑĢÐ°Ð²ÐµÐ½":3327,"ÑĩÐµÑĢÐ°":3328,"ĠÐ·Ð°ÑĤÐµÐ¼":3329,"ĠÐ¿ÑĢÐ¾Ð¹":3330,"Ð¾Ð³ÑĢÐ°ÑĦÐ":3331,"Ġ60":3332,"ĠÑģÐ¾ÑĨÐ":3333,"°Ð³Ð":3334,"ÑĤÐ¸ÑĩÐµÑģÐºÐ¸":3335,"ĠÐºÐ°ÐºÐ°Ñı":3336,"Ð¾Ð¶ÐµÑģÑĤÐ²Ð":3337,"Ð¶ÐµÐ¹":3338,"ĠÐ¼Ð°Ð»":3339,"ĠÐ³Ð¾ÑĤÐ¾Ð²":3340,"ÑĢÐ³Ð°":3341,"ĠÑģÐ±Ð¾ÑĢ":3342,"¸ÑĦÐ¸":3343,"ĠÐ´Ð¾Ð»Ð¶Ð½Ð°":3344,"ĠÐºÑĢÐ¾Ð¼Ðµ":3345,"ĠÐ¢Ð°Ð¼":3346,"Ð°Ñģ":3347,"ĠÑĥÑĩÐµ":3348,"Ð¿ÑĥÑĤÐ°":3349,"Ġ45":3350,"µÐ½Ð½ÑĭÐµ":3351,"Ð±Ð¾Ð¹":3352,"ĠÐ³Ð¸":3353,"ĠÑģÐ»ÑĥÐ¶":3354,"Ð»ÐµÐµ":3355,"ĠÐ²Ð¸Ð´Ð¸":3356,"ÑĢÐ·":3357,"Ð¿Ð°Ð»":3358,"ĠÐ¿Ð¾ÑĤÐµÑĢÑı":3359,"ĠÐŁÑĢÐµ":3360,"ÐµÐ´Ð¸":3361,"ÑĨÐ°ÑĤÑĮ":3362,"Ð»ÐµÐºÐ¾":3363,"ĠÑĢÑĥÐºÑĥ":3364,"ĠÐ±Ð¾Ð»ÑĮÑĪÐ¸Ð½":3365,"ĠÐľÐ¾Ð¶ÐµÑĤ":3366,"ÑĤÐºÐµ":3367,"ĠÐ²Ð·Ñı":3368,"ÑĢÑĭÐ²":3369,"ĠÐ²Ð»Ð°ÑģÑĤÐ¸":3370,"ÑģÑĤÐ°Ð½":3371,"ĠÑģÑĤÑĢÐ°ÑĪ":3372,"ÑıÐ¼":3373,"ĠÐ»ÐµÑģ":3374,"ĠÐĲÑĢ":3375,"ĠÐ±ÑĥÐ´ÑĥÑīÐ":3376,"ĠÑĢÐµÑĪÐ¸Ð»":3377,"ĠÐ¿Ð¾Ð½ÑıÑĤÑĮ":3378,"li":3379,"ĤÐ½Ð¾":3380,"ÑĤÐ½Ð¾":3381,"Ð½Ð¾ÑģÑĤÐµÐ¹":3382,"ue":3383,"Ġ*":3384,"ĠÐ¿ÑıÑĤÑĮ":3385,"Ð»ÑĮÐ½Ð¾Ðµ":3386,"av":3387,"ĤÐ¾Ðº":3388,"ÑĤÐ¾Ðº":3389,"ĠÑģÐ»ÑĭÑĪÐ":3390,"ĠÐºÑĢÐ°Ñģ":3391,"µÑģÑı":3392,"ĠÐ¸ÑģÐ¿Ð¾Ð»ÑĮÐ·Ð¾Ð²Ð°ÑĤÑĮ":3393,"ĠÐ¾Ð´Ðµ":3394,"ĠÑģÐ¿ÑĢÐ¾ÑģÐ¸Ð»":3395,"Ð¢ÐĲÐ¡Ð¡":3396,"ĠÐ±Ð¸Ð·":3397,"Ð¾Ð¶ÐµÑĤÐµ":3398,"ĠÐĶÐ¾Ð¿ÑĥÑģÑĤÐ¸Ð¼":3399,"Ð¾ÑīÑĥ":3400,"ĠÐ¼Ð¾Ð·":3401,"ÑĩÐ½ÑĭÐ¼":3402,"ĠÐºÐ¾ÑĢÐ°":3403,"ĠÐ»Ð¸ÑĨÐ¾":3404,"ĠÑģÐ¾Ð¾Ð±ÑīÐ°ÐµÑĤ":3405,"ĠÐ´ÐµÐ»Ð":3406,"80":3407,"pe":3408,"ĠO":3409,"ÑĢÐ¾Ð·":3410,"ĠÑĢÐ°ÑģÐ¿":3411,"ĠÐ¿Ð¾Ð¿Ð":3412,"ĠÐ¿ÑĥÑģÑĤÑĮ":3413,"ÐºÑģ":3414,"ĠÐ¾ÑĤÐ½Ð¾ÑģÐ":3415,"Ð±Ð¾Ð²":3416,"ĠÐ½Ð°Ð¼Ðµ":3417,"Ð¼Ð¾Ð¹":3418,"ÑıÐµÑĤ":3419,"ĠÑĢÐ°ÑģÐº":3420,"ĠÐ¿ÑıÑĤ":3421,"ĠÐ¾ÑīÑĥ":3422,"ĠÐ±Ð»Ð¸Ð·":3423,"Ð½Ð³Ð°":3424,"ĠÐ°Ð²ÑĤÐ¾Ð¼Ð¾Ð±Ð":3425,"ĠÑģÐ°Ð¼Ð¾Ð³Ð¾":3426,"Ð¼Ð¸ÑĤ":3427,"ĠÐ¿ÑĢÐ¸Ð¼Ðµ":3428,"ĠÑģÐ¾Ð±Ñĭ":3429,"ĠÑģÑĤÐ°ÑĢÐ°":3430,"ĠÐºÐ°Ð·Ð°":3431,"ĠÐ¾ÑģÑĥ":3432,"ÐĶÐ»Ñı":3433,"ĠÐ²Ð¾Ð·Ð´Ñĥ":3434,"ĠÐ´ÐµÐºÐ°":3435,"Ð¾Ð»Ð°Ð³Ð°":3436,"ĠÐ¿ÑĢÐµÐ´Ñĥ":3437,"ĠÐ¼Ð½Ð¾Ð³":3438,"ĠÑģÐ¾Ð¼":3439,"ĠÐ¾Ð³ÑĢÐ°Ð½Ð¸":3440,"Ð´ÐµÑİ":3441,"Ð½ÑĥÑĤÑĮÑģÑı":3442,"ÑģÐºÐ¾":3443,"ĠÐ¾ÑģÐ":3444,"ÐµÑĤÑĮ":3445,"ik":3446,"ĠÐ¿ÐµÑĢÐµÑħ":3447,"ÑģÐ¸ÑĤ":3448,"ĠÐ¸Ð½ÑĤÐµÑĢÐµÑģÐ½Ð¾":3449,"ĠÐ¿ÑĥÐ½Ðº":3450,"ĠÑĩÐ°ÑģÐ¾Ð²":3451,"Ð´ÐµÑĤÑģÑı":3452,"60":3453,"ĠÑģÑĤÐ¸":3454,"ĠÐ´Ð¾Ð»Ð¶Ð½Ð¾":3455,"ÐĽÑİ":3456,"ÑĤÐ°ÑĢ":3457,"ÐµÑĪÐ¸ÑĤÐµ":3458,"ĠÑĦÐ¾ÑĢÐ¼":3459,"ÑģÐ¸Ð¼":3460,"Ð¾Ð»Ð¾ÑĤ":3461,"ĠÐ¾Ð±ÑĭÑĩÐ½Ð¾":3462,"ĠÐ¼ÐµÑģÑıÑĨ":3463,"ĠÐ¿Ð¾Ð³Ð¸":3464,"ĠÐºÑĥÐ»ÑĮ":3465,"ĠÐ·Ð°ÑĤ":3466,"ĠÐ¾ÑĦÐ¸ÑĨÐ¸Ð°Ð»ÑĮ":3467,"Ð½ÑĥÐ²":3468,"ĠÐ½Ð¾Ð²Ð":3469,"ĠÐ¾Ð´Ð½Ñĥ":3470,"Ð´ÐµÐ»Ð¸":3471,"ĠÐ²Ð·Ð³Ð»ÑıÐ´":3472,"ĠÐ½Ð¾Ð²ÑĭÐ¹":3473,"ĠÐ¸ÑģÐ¿Ð¾Ð»":3474,"?!":3475,"Ð½Ð¸ÑĨÐµ":3476,"ĠÐ¿ÑĢÐ¾Ð¸Ð·Ð²":3477,"Ð²Ð¸ÑĤ":3478,"ĠÑģÐ´ÐµÐ»Ð°Ð»":3479,"ÑĢÐ°Ð²Ð¸ÑĤÑģÑı":3480,"ĠÐ´Ð°Ð½Ð½ÑĭÑħ":3481,"ÑĢÐ¾ÑģÑĤÑĮ":3482,"ÑĢÐ±Ñĥ":3483,"ÑĩÐ½Ð¾Ðµ":3484,"ĠÑıÐ½Ð²":3485,"ĠÑĥÑģÐ»Ð¾Ð²Ð¸Ñı":3486,"ĠÐ¶Ð°":3487,"ÑĤÐµÐ»ÑĮÐ½Ð¾Ð¹":3488,"Ð³Ð»Ð°":3489,"ÑĮÐ¸":3490,"ĠÐłÑĥ":3491,"ĠÐºÐ»Ð¸Ð":3492,"Ð»Ð¸Ð·":3493,"ĠÑĥÑĩÐ°ÑģÑĤ":3494,"ĠÐ³Ð¾ÑĢÐ¾Ð´Ðµ":3495,"Ð¾ÑĢÐ¾ÑĪÐ":3496,"ÐºÑĢÐµÑĤ":3497,"ĠÐ¾ÑĢÑĥÐ¶Ð":3498,"¸ÐµÑģÑı":3499,"ÑīÐµÐ½Ð¸Ðµ":3500,"ÐĿÐµÑĤ":3501,"ĠÐ³Ð¾ÑģÑĥÐ´Ð°ÑĢÑģÑĤÐ²ÐµÐ½":3502,"Ð·Ð¸Ð½":3503,"Ð³Ð¾Ð²":3504,"ĠU":3505,"ĠÐ¿Ð¾Ð¶Ð":3506,"Ð¿Ð¾ÑĤ":3507,"ÑıÐ¼Ð¸":3508,"out":3509,"ĠÐ¿Ð¾ÑģÑĤÑĢ":3510,"40":3511,"ation":3512,"ĠÐ¼Ð°ÑĪÐ":3513,"ĠÐ²ÑģÐ¿Ð¾Ð¼":3514,"Ð½Ð°ÑĤ":3515,"ĠÐ¼Ð¾Ð³Ð»Ð¸":3516,"Ð½Ð¸ÐºÑĥ":3517,"ĠÐ´Ð¾Ð¶":3518,"ÑĩÐ°Ð»Ð¸":3519,"¸Ð´ÐµÑĤ":3520,"ĦÑĦÐ":3521,"Ð¸Ð´ÐµÑĤ":3522,"ĠÐ¾ÐºÑĤÑı":3523,"°Ñĥ":3524,"µÐºÑĤÐ¸Ð²":3525,"ÑĳÐ·":3526,"ÑĢÐ°Ð²Ð´Ð°":3527,"ĠÑħÐ°ÑĢÐ°Ðº":3528,"ĠÑģÑĬ":3529,"ĠÐ·Ð½Ð°Ð»":3530,"ÑĢÐ°Ð·Ð´":3531,"ĠÐĺÑģ":3532,"ĠÑīÐµ":3533,"ĠÑħÐ¾Ð»Ð¾Ð´":3534,"ÑĢÐµÐ´ÑĮ":3535,"ÑĤÐ°ÑĤÑĮ":3536,"ĠÐ²Ð½Ð¾Ð²ÑĮ":3537,"ĠÐºÐ»Ñİ":3538,"ĊĊ":3539,"ĠÑĩÐ¸ÑģÐ»Ð°":3540,"ĠÐ¸Ð´ÐµÑĤ":3541,"Ð»ÐµÐ³":3542,"ÑĤÐ¸ÐºÐ°":3543,"°ÑĪÐ°":3544,"ÐµÑħÐ":3545,"ĠÐ½Ñĭ":3546,"Ð»ÐµÐ½Ñĭ":3547,"ĠÑģÐ¿Ð¸Ñģ":3548,"°Ð½Ð³":3549,"Ð¡Ð¡Ðł":3550,"Ð½ÑĨÐµ":3551,"ĠÐ¿Ð¾Ð»Ð½Ð¾ÑģÑĤÑĮÑİ":3552,"Ġ@":3553,"Ð¾Ð¸Ñħ":3554,"ĠÐ¼ÑĥÐ¶ÑĩÐ¸":3555,"ĠÑĤÐµÑĢÑĢÐ¸ÑĤÐ¾ÑĢÐ¸Ð¸":3556,"ĠÐ´ÐµÐ¼":3557,"ÑĤÐ¾ÑĢÐ¸":3558,"Ð»ÑĮÐ½Ð¾Ð³Ð¾":3559,"°Ð¿ÑĢÐµ":3560,"Ð¿Ð¾Ð½":3561,"ĠÐ²ÑĭÑĪ":3562,"ĠÐĴÐ¸":3563,"ĠÐ½ÐµÐ¿ÑĢÐ¸":3564,"ĠÐ´ÑĢÐ°":3565,"ĠÐ¸ÑģÑĤÐ¾ÑĢÐ¸Ð¸":3566,"am":3567,"ter":3568,"Ð°Ð¿ÑĢÐµ":3569,"ĠÐ°ÐºÑĤÐ¸Ð²":3570,"ĠÐ¿ÑĢÐ¸Ð²Ñĭ":3571,"ĠÑĤÑĢÐ°Ð½Ñģ":3572,"Ð¾Ð»ÐµÐµ":3573,"ÑĭÑĪ":3574,"ÑĥÐ¹":3575,"ĠÐ´Ð¾Ð»Ð»Ð°":3576,"ĠÑģÐ¾Ð²ÐµÑĢÑĪÐµÐ½Ð½Ð¾":3577,"ĠÐłÐµ":3578,"ĠÐ·Ð°Ð¼":3579,"°Ð²Ð":3580,"ĠÑĥÐ²ÐµÐ»Ð¸":3581,"ĠÐ²ÑģÐµÐ¹":3582,"ĠÐ²ÑĭÑħÐ¾Ð´":3583,"ĠÐ´Ð¾Ð²Ð¾Ð»ÑĮÐ½Ð¾":3584,"Ð»ÐµÐ½Ð°":3585,"ĠÐ¿ÑĢÐµÑģÑģ":3586,"¸ÑĨÑĥ":3587,"ĠÐŁÐµÑĤ":3588,"Ð»Ð¸Ð²Ð¾":3589,"Ð¿Ð¾Ðº":3590,"ĠÑĩÑĥÐ²ÑģÑĤÐ²":3591,"ĠÐ³Ð¾Ð²Ð¾ÑĢÐ¸Ð»":3592,"Ð¾Ð¶Ð´ÐµÐ½Ð¸Ñı":3593,"ÐłÐ°Ñģ":3594,"ÑĩÑ":3595,"Ġq":3596,"¸Ð±Ð¾":3597,"ĠÐ¿Ð¾Ð´Ð´ÐµÑĢÐ¶":3598,"ĠÐºÐ¾Ð»Ð¸ÑĩÐµÑģÑĤÐ²Ð¾":3599,"ĠÐ°Ð¿ÑĢÐµ":3600,"ĠÐ±Ñİ":3601,"ĠÐ°Ð´Ð¼Ð¸Ð½Ð¸ÑģÑĤÑĢÐ°":3602,"Ġin":3603,"ĠÐ²ÑĭÐ±Ð¾":3604,"Ġst":3605,"ĠÐ¾ÑĤÐ´ÐµÐ»ÑĮ":3606,"ĠÑĥÐºÐ°":3607,"ÑĩÑĤ":3608,"ĠÑĦÐ¾ÑĤ":3609,"ĠÐ¾Ð±Ñĥ":3610,"ĠÐ¾Ð±ÑģÑĥ":3611,"ĠÐ½ÐµÐ´Ð°":3612,"Ð²Ð¾Ð±":3613,"ĠÑĥÐºÑĢÐ°Ð¸Ð½":3614,"ÑģÐºÑĥ":3615,"ĠÐ¼Ð°Ðº":3616,"Ð·ÑĭÐ²Ð°ÑĤÑĮ":3617,"()":3618,"Ð¼Ð¾ÑĢ":3619,"ĠÐ¾Ð±ÑīÐ¸Ð¹":3620,"Ð½Ð´Ð°ÑĢ":3621,"ĠÐºÐ°ÑĩÐµÑģÑĤÐ²Ðµ":3622,"ĠÑĦÐ°Ð¹":3623,"ĠÐ³ÑĢÐ°Ð¶Ð´Ð°Ð½":3624,"Ġ42":3625,"ĠÐ¿ÑĥÑĤÐ¸":3626,"ĠÐ´Ð²ÐµÑĢÑĮ":3627,"Ġ43":3628,"ÑģÑĤÑĢÐ¸":3629,"ĠÐ¿ÑĢÐ¸Ð»Ð¾Ð¶Ðµ":3630,"ĠÑĨÐ¸ÑĦ":3631,"ĠÑĢÐ°Ð±Ð¾ÑĤÐµ":3632,"ĠÑĤÐ¾ÑĢÐ³":3633,"ĠÑĦÐ¸Ð·Ð¸":3634,"ĠÐĴÐµÑĢ":3635,"ĠÑįÑĦÑĦÐ":3636,"Ð»Ð°Ð³":3637,"ÑįÑĤÐ¾":3638,"ĠÐĲÐ½Ð´":3639,"Ð»Ð°Ñı":3640,"ĠÑĢÐµÐ·ÑĥÐ»ÑĮÑĤÐ°ÑĤÐµ":3641,"ÑģÐ¾Ð»":3642,"ĠÐ¿Ð¸ÑģÑĮ":3643,"ĠÐ½Ð°ÑĩÐ°Ð»ÑĮ":3644,"ĠÑģÐ¾ÑģÑĤÐ°Ð²":3645,"ĠÐ½Ð°Ð·Ð½Ð°":3646,"ĠÐ¶Ð¸Ð²Ð¾ÑĤ":3647,"ĠÐ¸Ð½Ð¾Ð³Ð´Ð°":3648,"Ð°Ð³Ð":3649,"ĠÑģÑĦÐ":3650,"Ð¾Ð´Ð°Ñħ":3651,"ĠÐ¶ÐµÐ½ÑīÐ¸":3652,"ĠÑĢÐ°Ð·Ð²Ðµ":3653,"ÐºÐ½ÑĥÐ»":3654,"Ð»ÑĭÑħ":3655,"ĠÐ¿ÑĢÐ¸Ð¼ÐµÑĢÐ½Ð¾":3656,"ĠÐ´ÐµÐ»Ð¸":3657,"Ġ44":3658,"Ð»Ð°ÑģÑĤÑĮ":3659,"ÑĪÐ¸Ð¼":3660,"ĠÑĦÐ¾ÑĤÐ¾":3661,"ĠÐ´Ð°Ð½Ð½ÑĭÐ¼":3662,"ÑģÐºÐ¾Ð¼Ñĥ":3663,"ĠÑģÐ»Ð¾Ð²Ð¾":3664,"ĠÐ²Ð¼ÐµÑģÑĤÐ¾":3665,"ĠÐ¾ÑģÑ":3666,"Ð²Ð°ÑĤ":3667,"ĠÐ¾ÑģÑĤ":3668,"ĠÐ·Ð°Ð´":3669,"ĠÐ·Ðµ":3670,"ĠÐ¡Ð°Ð¼":3671,"ÐĵÐ":3672,"Ð¿ÑĢÐ¾":3673,"ĠÑĥÑĤÐ²ÐµÑĢÐ¶":3674,"ÑĢÑĥÐ·":3675,"ĠÑģÐ¾Ð¾Ð±ÑīÐ¸Ð»":3676,"ĠÑģÐºÑĢÑĭ":3677,"ĠÐ¾Ð±Ð²Ð¸":3678,"Ð¿Ð¾Ð»Ð¾Ð¶Ð":3679,"ĠÐ³Ð¾Ð´Ñĭ":3680,"lass":3681,"ÑĤÐ¾ÑĢÐ¾Ð¼":3682,"ĠÐ½Ð°Ð³":3683,"°ÑİÑīÐ¸Ñħ":3684,"Ġz":3685,"Ð²Ð»ÑıÐµÑĤÑģÑı":3686,"ĠÑģÐºÑĥ":3687,"Ð»Ð¾Ð³":3688,"ĠÐ½Ð°ÑĪÐµÐ¹":3689,"em":3690,"ĠÐ¼ÑĥÐ¶Ð¸":3691,"ĠÐĳÑĭ":3692,"ĠÐĶÐ¶Ð":3693,"ĠÑĤÐ°Ð¹":3694,"Ð·Ð°ÑĨÐ¸Ñı":3695,"ĠÐ¿ÑĢÐµÑģÑĤÑĥÐ¿":3696,"ĠÐ²Ð¸Ð¶Ñĥ":3697,"ĠÑģÐ¾Ð²ÑĢÐµÐ¼ÐµÐ½":3698,"ĠÐ¿Ð¾ÑģÐµ":3699,"ĤÑģÑı":3700,"ÑĤÑģÑı":3701,"ĠÐ½Ð°ÑħÐ¾Ð´Ð¸ÑĤÑģÑı":3702,"Ð¼Ð°Ñı":3703,"ĠÐ¿ÑĢÐ°Ð²Ð°":3704,"ÑĤÐµÑģÑĮ":3705,"ĠÐ³Ð»Ð°Ð·":3706,"ÑĩÐµÐº":3707,"Ð¡Ðļ":3708,"ĠÑĦÐ¸Ð½Ð°Ð½":3709,"ĠÑĥÐ¶Ð":3710,"ĠÐºÑĢÑĥÐ³":3711,"ĠÐ¶Ð°Ð»":3712,"Ð½Ð¸Ð½":3713,"ÐºÐ¾Ð»ÑĮÐºÑĥ":3714,"ÑĪÐµÐ½Ð¸Ñı":3715,"ĠÐĴÐ¾Ð·":3716,"Ð°Ð½Ð³":3717,"ĠÐ°ÑĢÐµ":3718,"ĠÑģÑĤÑĢÐ¾Ð¸":3719,"Ð·ÑĮ":3720,"ÑĩÐ°Ð¹":3721,"Ð»Ð¾Ð¹":3722,"¾ÑīÐ¸":3723,"ĠÐ¿Ð¾Ð»ÑĥÑĩÐ¸ÑĤÑĮ":3724,"ĠÐ½Ð°Ð¸Ð±":3725,"ĠÐ»ÑİÐ±Ð²Ð¸":3726,"ĠÐŁÐµÑĢÐµ":3727,"ont":3728,"ĠÐ´Ð¾Ðº":3729,"ĠÐ´Ð¸ÑĢÐµÐº":3730,"ÑĩÐµÑģÑĤÐ²Ð°":3731,"ĠÐŀÑģ":3732,"Ð»ÑĮÑı":3733,"ÑĤÐµÐ»ÑĮÐ½ÑĭÐµ":3734,"ĠÐ½Ð°ÑĩÐ¸":3735,"Ð¡Ð¿Ð°ÑģÐ¸Ð±Ð¾":3736,"Ð¾Ð²ÑĭÐ¼":3737,"ĠÐ¡ÐµÑĢÐ³Ð":3738,"ÐºÑĢÑĭ":3739,"°Ñĳ":3740,"ĠÐ»Ð¾Ð³Ð¸":3741,"ĠÑģÐµÑĢÑĮÐµÐ·":3742,"µÐ½Ð½Ð¾Ð³Ð¾":3743,"¸Ð½Ð¾Ð¹":3744,"Ð·Ð¸Ð¸":3745,"ĠÐ¼Ð½Ð¾Ð³Ð¸Ðµ":3746,"ĠÐ¾ÑĤÐ²ÐµÑĤÐ¸Ð»":3747,"ĠÐ¿ÑĢÐ°Ð²Ð¸Ð»ÑĮÐ½Ð¾":3748,"Ð½ÐµÑĤÑģÑı":3749,"ĠÐ¾Ð¿Ð°Ñģ":3750,"Ð´ÐµÐ½ÑĤÐ°":3751,"ĠÐ»ÑİÐ±Ð¾Ð¹":3752,"ĠÐŁÐ¾ÑįÑĤÐ¾Ð¼Ñĥ":3753,"ĠÐ²Ð¸Ð´ÐµÐ":3754,"ÑĤÑĥÑĢÐ°":3755,"Ð¿Ð°ÑĢ":3756,"ĠÑģÐµÑĢÐµ":3757,"23":3758,"))))":3759,"ÑĤÐµÐ»ÑĮÐ½Ð¾ÑģÑĤÑĮ":3760,"ĠÑģÑħ":3761,"Ð¾Ð½Ð¾Ð¼":3762,"ĠÐ½Ð¾ÑĩÑĮ":3763,"ĠÐ½ÐµÐ¸Ð·":3764,"ĠÐ¡Ð¡Ð¡Ðł":3765,"ÑĤÐµÐ»ÑĮÐ½ÑĭÑħ":3766,"ĠÑģÑĤÑĢÐ°Ð½Ðµ":3767,"ĠÑĢÐµÐ±Ðµ":3768,"ĠÐ²ÐºÑĥ":3769,"°Ð´Ð¸":3770,"ĠÐ¥Ð¾ÑĤÑı":3771,"Ð»Ð°Ð¼":3772,"ĠÐ³ÐµÑĢ":3773,"Ð´Ð°Ð½Ð¸Ñı":3774,"¸ÑĨÐ¸Ñı":3775,"ĠÐ¸ÑĤÐ¾Ð³Ðµ":3776,"ÐĶÐ¾Ð¿ÑĥÑģÑĤÐ¸Ð¼":3777,"ĠÐ²Ð¾Ð²":3778,"ĠÐ½Ð°ÑĪÐ¸":3779,"ĠÑĥÐ´Ð¾Ð±":3780,"ĠÐ¾Ð±ÑīÐµÐ¼":3781,"ĠÐ°Ð³Ð":3782,"ĠÐ²Ð½Ð¸Ð¼Ð°Ð½Ð¸Ðµ":3783,"ÑĨÐµÐ¼":3784,"¾ÑĩÑĮ":3785,"Ġ90":3786,"ĠÑģÑĤÐ¾Ð¸":3787,"ĠÐºÐ¼":3788,"Ð²Ð°Ð»Ð°ÑģÑĮ":3789,"Ð¼ÐµÐ¹":3790,"ĠÐ¿Ð»Ð°ÑĤ":3791,"ĠÐ¸ÑģÑģÐ»ÐµÐ´Ð¾Ð²Ð°":3792,"ĠÐ´ÑĥÑĪ":3793,"ĠÐ±ÑĥÐ¼Ð°":3794,"ĠÐ¼Ð»Ð½":3795,"ĠÐ¿Ð¾Ð»ÑĥÑĩÐ¸Ð»":3796,"ĠÐºÐ°Ð¼":3797,"ĠÐ¿Ð»Ð¾ÑħÐ¾":3798,"ĠÐ¿Ð¾Ð²Ñĭ":3799,"ĠÑĦÐ¸Ð³":3800,"µÑĢÑĭ":3801,"ÑģÑĤÐ":3802,"Ð²ÑĪÐ¸Ðµ":3803,"Ð»Ð°Ð³Ð°":3804,"ĠÐ¸ÑģÑĤÐ¾Ñĩ":3805,"ĠÐ´Ð°Ð½Ð½ÑĭÐµ":3806,"Ð¢Ð¾":3807,"ÑģÑĤÐµ":3808,"ĠÐºÐ»Ð°":3809,"ĠÐ¿Ð¾Ð»Ð¾Ð¶Ðµ":3810,"ĠÐ¸Ð·Ñĥ":3811,"ĠÐ¿Ð¾Ð±":3812,"ĠÑģÐ¸ÑģÑĤÐµÐ¼Ñĭ":3813,"ĠÐ¿Ð¾Ð¶Ð°Ð»ÑĥÐ¹":3814,"Ð»ÑĳÐ½":3815,"Ð¼ÐµÑĤÑĮ":3816,"ĠÐ·Ð°Ð¿Ð¸":3817,"Ð¾Ð´ÑıÑĤ":3818,"ĠÐĴÐ¾":3819,"ĠÐ´ÐµÐ¹ÑģÑĤÐ²Ð¸Ñı":3820,"¾ÑĤÐº":3821,"ĠÐ¾ÑĤÑģÑĥÑĤ":3822,"ĠÑĤÐµÑħÐ½":3823,"ĠÐ´Ð¾Ð¿Ð¾Ð»":3824,"ĠÑĢÐ°Ð¹Ð¾Ð½Ðµ":3825,"Ð½Ð½ÑĭÐ¹":3826,"Ð»Ð¸Ð¸":3827,"Ð¾ÐµÐ´Ð¸":3828,"ĠÐ¿Ð¾Ð¼Ð¾ÑīÑĮÑİ":3829,"ĠÐ¢ÐµÐ¿ÐµÑĢÑĮ":3830,"ÑĩÐ¸ÑģÐ»Ð¸":3831,"ĠÐ²Ð½ÐµÑĪ":3832,"ĠÐ´Ð¾Ð¼Ð":3833,"ÐŀÐ±":3834,"ĠÐ¼Ð°Ñı":3835,"ĠÐ²Ð¸Ð´ÐµÐ¾":3836,"ĠÐ´Ð¾Ð¼Ð¾Ð¹":3837,"Ð°Ð²Ð":3838,"ÑĢÐ¾Ð":3839,"ĠÐ¾ÑĤÐ½Ð¾ÑĪÐµÐ½Ð¸Ñı":3840,"ĠÐºÐ¾Ð¼Ð":3841,"ÑĢÐ¾Ð²Ð°Ð½Ð¸Ðµ":3842,"Ð²ÐµÐ»":3843,"ction":3844,"ĠÑĥÐ´Ð¾Ð²":3845,"µÑĤÐµÑĢÐ±Ñĥ":3846,"ĠÑģÑĤÐ°ÑĤÑĮÐ":3847,"ĠÐ¼ÑĭÑģÐ»Ð¸":3848,"ÐĺÐ½":3849,"ĠÐ»ÑİÐ±Ð¾Ð²ÑĮ":3850,"ĠÑģÐ¿ÐµÑĨÐ¸Ð°Ð»Ð¸":3851,"ĠÐ¾ÑĢÐ³Ð°Ð½Ð¸Ð·":3852,"ĠÑĦÐµÐ²":3853,"ĠÐ½ÐµÐ²Ð¾Ð·":3854,"Ð½Ð°Ð¼":3855,"ĠÐ½ÐµÐ¼Ñĥ":3856,"ĠÐ³Ð¾Ð²Ð¾ÑĢÑıÑĤ":3857,"Ð·ÐµÐ¹":3858,"ĠÐ·Ð½Ð°ÑĩÐ¸":3859,"ĠÑĢÐ°Ð²Ð½ÑıÐµÑĤÑģÑı":3860,"ĠÐºÐ¾Ð½ÐºÑĢÐµÑĤ":3861,"ĠÐ¿ÑĢÐ¸Ð´Ñĥ":3862,"ĠÐ²ÑĭÐ±ÑĢÐ°":3863,"ĠÑĤÐ²Ð¾Ðµ":3864,"ĠÐ´Ð°Ð½Ð½ÑĭÐ¹":3865,"Ð¿ÑĢÐ°":3866,"ÑĥÐ":3867,"ĠÑĥÑĩ":3868,"ĠÑĢÐ°Ð·ÑĢÐµÑĪÐ":3869,"ÑĢÐ¸ÑģÑĤÐ¸":3870,"Ð´ÐµÑģÑĮ":3871,"ĠÑħÑĥÐ´":3872,"ÐłÐ°Ð·":3873,"ĠÑģÐ¾Ð±Ð°":3874,"°ÑīÐµ":3875,"Ð¶Ð´ÐµÐ½":3876,"ÑĤÑĭÐ¹":3877,"Ð²Ð¸Ñĩ":3878,"Ð¾Ð»ÑĮÑĪÐµ":3879,"ĠÐ¿ÑĢÐ¾Ð±Ð»ÐµÐ¼":3880,"Ġ47":3881,"ĠÑĢÐ°Ð·Ð°":3882,"ĠÐ¿ÑĥÑĤÑĮ":3883,"ÐºÐ¾Ñģ":3884,"Ð½Ð¸Ð»Ð¸":3885,"ĠÐµÐ´Ð¸Ð½ÑģÑĤÐ²ÐµÐ½":3886,"ĠÐ´Ð¸Ñģ":3887,"ĠÐ±ÑĭÐ²Ð°ÐµÑĤ":3888,"ÑĢÐ¸Ð·":3889,"Ġ48":3890,"ĠÐ·Ð½Ð°ÑĤÑĮ":3891,"Ð½ÐµÑĨ":3892,"ĠÐ¾Ð´Ð½Ð¾Ð¼":3893,"¾ÑĪÐ»Ð¾":3894,"ĠÐ¾Ð´Ð¸":3895,"Ð²ÐµÑģ":3896,"ÑģÑĤÐ²Ð¸Ð¸":3897,"ĠÐºÐ¾ÑĤÐ¾ÑĢÑĭÐ¼":3898,"Ġ46":3899,"ÑĪÐ°ÑĤÑĮ":3900,"ĠÑħÐ°":3901,"ĠÐ¾ÑģÐ¾Ð±ÐµÐ½Ð½Ð¾":3902,"ĠÐ¿ÑĢÐ¾Ð²Ð":3903,"ĠÐ½Ð¸ÐºÐ°Ðº":3904,"Ð¾Ð»Ñĭ":3905,"ĠÑģÑĤÐ¾":3906,"27":3907,"ĠÐ§Ðµ":3908,"ĠÑĥÐ²ÐµÑĢÐµÐ½":3909,"Ð²ÑĪÐµÐ¹":3910,"Ð´Ð²Ð¸":3911,"ĠÐ¼Ð°Ð»ÑĮ":3912,"Ð¾ÑģÑ":3913,"Ð¾ÑģÑĤ":3914,"ĠÑģÐ¸Ñħ":3915,"ĠÐ²Ð°ÑĪ":3916,"ĠÐ·Ð°Ð²ÐµÑĢ":3917,"ĠÐ»ÐµÐ³ÐºÐ¾":3918,"ĠÐ±ÑĥÐ´ÐµÐ¼":3919,"lic":3920,"°Ñį":3921,"Ġ70":3922,"ÑĢÐ¸ÑĤÐµ":3923,"ver":3924,"ĠÐ¿ÑĢÐµÐ·Ð¸Ð´ÐµÐ½ÑĤ":3925,"ĠÐ½Ð°Ð²ÐµÑĢÐ½Ð¾Ðµ":3926,"ĠÐ¶ÐµÐ½ÑīÐ¸Ð½Ð°":3927,"ÑģÑĤÐ¾Ð¼":3928,"ÑĦÐ°":3929,"°Ð¹Ð´Ð¸ÑĤÐµ":3930,"ĠÐ¿Ð»Ð°Ð½Ð¸":3931,"Ð»ÑĮÑİ":3932,"Ð¿ÐµÐº":3933,"ÐĸÐ":3934,"ĠÑģÑĤÐ°Ð½":3935,"ĠÐ¿Ð¸Ð·":3936,"ĠÐ¿ÑĢÐ¾Ð¼":3937,"ÑĢÑĥÐ¿":3938,"ind":3939,"ĠÑģÑĥÐ´":3940,"Ð¥Ð":3941,"ĠÑĢÐ°Ð·Ñĥ":3942,"ĠÐ¾ÐºÑĢÑĥ":3943,"ĠÐŁÑĢÐ¾ÑģÑĤÐ¾":3944,"Ð·ÐµÐ¼":3945,"ĠÑģÐ¾ÑģÐµÐ´":3946,"ĠÐ¡ÐµÐ¹ÑĩÐ°Ñģ":3947,"Ð¶ÐµÐ½Ð¸Ð¸":3948,"Ð¢Ðŀ":3949,"Ð½Ð¾Ð¿":3950,"ĠÐ¸Ð½Ð²":3951,"ĠÐ²Ð¿ÐµÑĢÐµ":3952,"ĠÐľÐ¾ÑģÐºÐ²Ðµ":3953,"ĠÑģÐ²Ð¾Ð±Ð¾Ð´":3954,"Ð»ÐµÑĢ":3955,"Ð¢Ð°":3956,"ÑĢÐ°Ðº":3957,"ĠÐ¾ÑĩÐµÑĢÐµÐ´ÑĮ":3958,"ĠÐ¿ÑĢÐ¾Ð¸ÑģÑħÐ¾Ð´Ð¸ÑĤ":3959,"µÑĢÑĥ":3960,"ĠÑĪÑĤÑĥ":3961,"ĠÐ¿Ð¾ÑģÐ»ÐµÐ´Ð¾Ð²Ð°":3962,"ĠÐ²Ð½ÑĥÑĤÑĢÐ¸":3963,"Ð²Ð»Ð¸":3964,"Ð»Ð¾ÑĤ":3965,"Ð´Ð°ÑĤ":3966,"ĠÑĥÑĤÑĢÐ°":3967,"¸Ð²":3968,"Ð¶Ð´ÐµÐ½Ð¸Ñı":3969,"ĠÐ²Ð½ÑĥÑĤÑĢÐµÐ½":3970,"ÑĤÐ¸Ðº":3971,"ĠÑĦÑĥÐ½ÐºÑĨÐ¸Ð¸":3972,"ĠÑģÐ¾ÑĢ":3973,"Ð³Ð°ÑĤÑĮ":3974,"ĠÐ³Ð»Ñı":3975,"ĠÑģÐ¸ÑĤÑĥÐ°ÑĨÐ¸Ð¸":3976,"28":3977,"ĠÐ¾Ð±Ð¾":3978,"Ð¼Ð°ÑĢ":3979,"ÐĵÐ´Ðµ":3980,"ĠÐºÐ¾Ð»Ðµ":3981,"ÑģÐ¾":3982,"ĠÐ½ÑĥÐ¶ÐµÐ½":3983,"¾ÑĢÐ¸ÑĤÑĮ":3984,"Ð½ÐµÑĤÐµ":3985,"Ð¼ÐµÐ½ÑĤÐ¾Ð²":3986,"ĠÑģÐµÐºÑĥ":3987,"Ð³Ð°Ð½":3988,"ile":3989,"ÑĭÐ¼Ð¸":3990,"ÑģÑĤÑĢÑĥ":3991,"((":3992,"Ġ80":3993,"ĠÐ°Ð²Ð":3994,"Ð»Ð¸ÑĤ":3995,"ĠÐ¿Ð¾ÑģÑĤÐ¾ÑıÐ½Ð½Ð¾":3996,"ĠÐ°Ð½Ð³":3997,"Ð¿Ð»Ð°ÑĤ":3998,"ĠÑħÐ¾ÑĩÐµÑĤÑģÑı":3999,"Ġ49":4000,"ĠÑĢÐµÐºÐ»Ð°":4001,"ĠÐ¸Ð½ÑĦÐ¾ÑĢÐ¼Ð°ÑĨÐ¸Ð¸":4002,"ĠÐ¿ÑĢÐµÐ´ÑģÑĤÐ°Ð²Ð»Ñı":4003,"ĠÐ±Ð»Ð¸Ð¶Ð°Ð¹":4004,"Ð¿Ð°Ñħ":4005,"ĠÐ´Ð¾Ñħ":4006,"ĠÑģÐµÐ½ÑĤÑıÐ±ÑĢÑı":4007,"ĠÐ²Ð¸Ð´Ð½Ð¾":4008,"°ÑİÑīÐ¸Ð¹":4009,"Ð½Ð·Ð":4010,"ÑģÐ¾Ð»ÑİÑĤ":4011,"ĠÐ°Ñģ":4012,"ĠÐ±Ð°Ð½Ðº":4013,"ĠÐ¡Ñ":4014,"ĠÐ²ÑģÐ¿":4015,"ĠÐ¡ÑĤ":4016,"ĠÐºÑĢÐ¾Ð²":4017,"Ð¶ÐµÐ¼":4018,"Ġ//":4019,"ĠÐ¿ÐµÑĢÐµÑģÑĤÐ°":4020,"Ð²ÑģÐµ":4021,"ÑĢÐ¾Ð²Ð¸":4022,"ĠÐ¿Ð¾Ð¼Ð½Ñİ":4023,"ĠÐ²ÐµÑĢÐ¾ÑıÑĤ":4024,"ĠÐ½ÐµÑģÐº":4025,"ĠÐºÐ¾Ð½ÑĨÐ°":4026,"ĠÐ¼Ð¸Ñģ":4027,"ÑĢÐ°Ð±Ð°ÑĤÑĭ":4028,"ĠÐ¾Ð´Ð½Ð¸Ð¼":4029,"ĠÐ»ÑİÐ´Ñı":4030,"ĠÐ±ÐµÐ·Ð¾Ð¿Ð°ÑģÐ½Ð¾ÑģÑĤÐ¸":4031,"ĠÐ¾Ð¿Ð¸ÑģÐ°":4032,"ĠÐ¿ÑĢÐ¾Ð´Ð¾Ð»Ð¶Ð":4033,"Ð±Ð¸Ð»":4034,"ĠÑįÐ½ÐµÑĢÐ³Ð":4035,"°ÑĤÐ°":4036,"ĠÐ¿ÑĢÐ¾Ð¿":4037,"ĠÑĦÑĥÑĤÐ±":4038,"ĠÐ½Ð°Ð¿ÑĢÑı":4039,"ĠÐ¿ÑĢÐµÐ´Ð»Ð¾Ð¶Ðµ":4040,"ÑĢÐ°Ð±Ð¾ÑĤÐºÐ":4041,"ĠÐ·Ð°Ð´Ñĥ":4042,"ĠÐºÐ¾Ð´":4043,"ĠÑĢÐµÐ´":4044,"ĠÐ·Ð²ÐµÐ·":4045,"26":4046,"Ð»Ð°ÑģÐ½Ð¾":4047,"ĠÐºÐ¾Ð¼Ð¼ÐµÐ½ÑĤÐ°ÑĢÐ¸Ð¹":4048,"ĠÑĥÐ±Ð¸Ð¹":4049,"ÑĤÐµÐ»ÑĮÐ½Ð¾Ð³Ð¾":4050,"ÑĢÐ°Ð±Ð¾ÑĤ":4051,"ĠÑĢÐ°Ð·Ð½ÑĭÑħ":4052,"om":4053,"Ð²Ð°Ð»Ð¾":4054,"ĠÑĦÐµÐ²ÑĢÐ°":4055,"Ġ#":4056,"ĠÐ¿ÑĢÐ¾Ð´ÑĥÐº":4057,"ÑĤÐ¸Ð»ÑģÑı":4058,"?)":4059,"ĠÐ¿ÑĢÐ¾ÑīÐµ":4060,"ĠÐ²Ð¾Ð´Ñĭ":4061,"ĠÑĩÐµÐ¼Ñĥ":4062,"ĠÐ¢Ð¾Ð³Ð´Ð°":4063,"ĠÐ¿Ð¸ÐºÐ°":4064,"Ð¾Ð´Ð¸Ð»Ð¸":4065,"ĠÐ¼ÐµÐ»":4066,"end":4067,"ĠÑģÐ¼ÐµÑĢÑĤÐ¸":4068,"ĠÐŁÐ¾ÑĤÐ¾Ð¼":4069,"ĠÐĶÐ°Ð¶Ðµ":4070,"ĠÑĥÐºÐ°Ð·Ð°":4071,"ĠÑĢÐ°Ð·Ð½ÑĭÐµ":4072,"ĠÐ¿ÑĢÐ¸Ð±Ñĭ":4073,"ĠÐ¾Ð±ÑĬÐµ":4074,"ĠÑģÑĤÐ°Ð½Ð¾Ð²Ð":4075,"Ð½Ð¸ÐºÐ°Ð¼Ð¸":4076,"Ð¼Ð¾ÑĤÑĢÑı":4077,"ĠJ":4078,"ÐºÐ²Ð¸":4079,"Ð»Ð¸Ð²":4080,"°Ð³":4081,"ĠÐ¤ÑĢÐ°Ð½":4082,"Ð»ÐµÑģ":4083,"ĠÐ´ÑĥÐ¼Ð°Ð»":4084,"ÑĢÐµÐ¼":4085,"Ð»ÑĮÐ":4086,"ÑĪÑĥÑİ":4087,"ĠÐ¿Ð¾ÐµÐ·":4088,"ĠÐ´ÑĥÑĪÐµ":4089,"ĠÐºÐ¾Ð¿Ð":4090,"¸ÑĪÐ¸":4091,"ĠÐ¿ÑĢÐµÐ´Ð¾ÑģÑĤÐ°":4092,"ĠÐĶÐ¶":4093,"ÑĩÐµÐ½Ð¸Ð¹":4094,"ĠÑģÐ¿Ð°ÑģÐ¸Ð±Ð¾":4095,"ĠÑģÐ²Ð¾Ñĳ":4096,"ĠÑĢÐ°Ð¼":4097,"ĠÑĥÐ´Ð°Ð»Ð¾ÑģÑĮ":4098,"ĠÐ¿Ð¾Ð´Ð¾Ð·":4099,"Ð´Ð¸Ð»":4100,"tr":4101,"ĠÐ¿Ð¾Ð¿ÑĢÐ¾Ñģ":4102,"ÑĩÐµÑģÐºÐ°Ñı":4103,"ĠÑĤÑĭÑģ":4104,"ĠÐĲÐ²":4105,"35":4106,"ÑģÑĤÑĢÐ°Ð":4107,"ist":4108,"ĠÐ³Ð»ÑĥÐ±":4109,"ÑĤÐ¸Ð½Ð°":4110,"Ð¾ÑģÑĤÐ°":4111,"Ð¸Ð±Ð¾":4112,"Ð°ÑĢÑı":4113,"ÑģÑĤÑĢÐ°Ð¸":4114,"Ð¼ÐµÑģÑĤ":4115,"Ð¾Ð»Ð¾Ð³Ð¸Ð¸":4116,"ĠÐ½ÐµÐºÐ¾ÑĤÐ¾ÑĢÑĭÐ":4117,"ĠÐ½ÐµÐºÐ¾ÑĤÐ¾ÑĢÑĭÐµ":4118,"Ġ41":4119,"ĠÑģÑĤÐ¾Ð»ÑĮÐºÐ¾":4120,"ĠÐ¾Ð¶Ð¸Ð´Ð°":4121,"ĠÐ»Ð¸ÑĨÐ°":4122,"ĠÐ¿ÑĢÐ¸Ð²":4123,"ÑĤÐµÑĤÐ°":4124,"ĠÐ¿Ð¸ÑģÐ°ÑĤÑĮ":4125,"ĠÐ¼Ð¾Ñģ":4126,"99":4127,"Ð¾Ð´Ð¸Ð»ÑģÑı":4128,"ĠÐ°Ð»ÑĮ":4129,"ĠÐļÑĤÐ¾":4130,"ĠÐĹÐ½Ð°":4131,"ĠÑģÑĤÐ°Ð½ÐµÑĤ":4132,"ĠÐºÐ¾ÑĢÐ°Ð±":4133,"ÑĢÐ±Ð":4134,"ĠÐ²Ð·ÑıÑĤÑĮ":4135,"ĠÑģÐ¸Ð»ÑĮ":4136,"ÑĩÐ¸Ð¹":4137,"ÐĺÑģ":4138,"µÐ½ÑĤÑĭ":4139,"ĠÐŁÐ¾ÑĩÐµÐ¼Ñĥ":4140,"ÑĤÐºÐ¾Ð²":4141,"ĠÐ¸Ð¼Ñı":4142,"ĠÐºÐ¾Ð½ÐºÑĥ":4143,"ĠÐ¿Ð¾Ð¿Ñĥ":4144,"ĠÑģÐ²Ð¾ÐµÐ¼":4145,"Ð´Ð°Ð½Ð¸Ðµ":4146,"ÐºÐ°Ð»":4147,"ÑģÑĤÑĥÐ¿Ð°":4148,"21":4149,"ĠÑĤÐ²Ð¾Ð¹":4150,"ĠÐ²Ð¾Ð¿ÑĢÐ¾ÑģÐ":4151,"Ð»Ð¸Ð½Ð°":4152,"ÑħÐ¾Ð´Ð¸Ð¼":4153,"ĠÐ´ÐµÑĤÐ¸":4154,"Ð»ÐµÐ½Ð½ÑĭÑħ":4155,"Ð¾Ð±ÑĢÐµ":4156,"ÐĳÑĥ":4157,"ÑĢÐ¾ÑģÑĤÐ¸":4158,"ÑģÑĤÐµÑĢ":4159,"ĠÐ¾Ð±Ð¸":4160,"ĠÐ´ÐµÐ²ÑĥÑĪÐºÐ°":4161,"Ġ2014":4162,"rue":4163,"Ð¼ÐµÐ½Ñı":4164,"ĠÑģÐ°Ð¼Ð¾Ð¹":4165,"ĠÑĨÐµÑĢ":4166,"ÑĩÐ¸ÑĤÑĮÑģÑı":4167,"ĠÐĵÐµÑĢÐ¼Ð":4168,"ĠÐ»ÑİÐ±Ð¸Ð¼":4169,"ĠÐ²Ð¾ÑģÑģÑĤÐ°":4170,"ÑĮÑĤÐµ":4171,"Ð¾Ð´Ð¸ÑĤÐµÐ»ÑĮ":4172,"ĠÐ³Ð¾Ð»Ð¾Ð²Ð¾Ð¹":4173,"ÑģÐ¸Ð²":4174,"ĠÐ¿ÑĢÐ°Ð·Ð´":4175,"ĠÐ½Ð¾Ð¼ÐµÑĢ":4176,"ÑģÐ°Ñħ":4177,"ĠÐ¸ÑģÐ¿Ð¾Ð»ÑĮÐ·Ñĥ":4178,"ĠÐ¸ÑģÐºÑĥÑģ":4179,"ĠÑģÐµÐ·":4180,"ÑģÐ»ÑĥÐ¶":4181,"ĠÑĦÐ¸Ð»ÑĮÐ¼":4182,"ĠÑģÐ½Ðµ":4183,"ĠÐ¿ÑĢÐµÐ²ÑĢÐ°":4184,"ĠÑıÑĢ":4185,"ĠÐ½Ð°Ð»Ð¸":4186,"ĠÑĢÐ°ÑģÐ¿ÑĢÐ¾Ñģ":4187,"ĠÐ´Ð°Ð»ÐµÐºÐ¾":4188,"ÑĩÑĮÑİ":4189,"ÐĴÐĲ":4190,"µÐ½ÑĮÐ":4191,"Ġse":4192,"Ð²ÑĪÐµÐ³Ð¾":4193,"Ð»Ð°ÑĤ":4194,"ÑĩÐ½ÑĥÑİ":4195,"ĠÐ¼ÐµÐ¶Ð´ÑĥÐ½Ð°ÑĢÐ¾Ð´":4196,"ĠÐ½ÐµÐ½Ð°":4197,"ÑĢÐ¾Ð²Ð°Ð»Ð¸":4198,"ÑĩÐ¸ÑĤÐ°Ð¹ÑĤÐµ":4199,"Ð·ÑĮÑı":4200,"ĠÐºÐ°ÐºÐ¾Ðµ":4201,"Ð¶Ð½Ð¾Ð¹":4202,"ĠÑĪÐ¸ÑĢ":4203,"ÑģÐºÐ¸Ð¼Ð¸":4204,"ata":4205,"ĠÐ¿ÑĢÐµÐ´Ð»Ð¾Ð¶Ð":4206,"ĠÑģÐ¸Ð»Ñĭ":4207,"ÑĤÐ¸ÑĢÑĥ":4208,"ĠÑĤÑĢÐµÑĤ":4209,"ĠÐ¸Ð½Ð°":4210,"Ġ2015":4211,"Ð²Ð°ÑıÑģÑĮ":4212,"ĠÑĥÑģÑĤÑĢÐ¾Ð¹":4213,"Ġ...":4214,"Ð²ÐµÑĤÐ°":4215,"Ð·Ð¾Ð²":4216,"Ð´Ð¸Ð":4217,"Ð¼ÐµÑĨ":4218,"ĠÐ½Ð°ÑĩÐ°Ð»Ðµ":4219,"ĠÐ±Ð¾Ñı":4220,"Ð¾ÐºÐµ":4221,"ĠÐ±Ð»Ð¸Ð¶Ðµ":4222,"ĠÐ¾ÑģÑĤÐ°Ð½Ð¾Ð²Ð":4223,"Ð²Ð°Ð»Ð¾ÑģÑĮ":4224,"ĠÐ±ÑĢÐ¸":4225,"ĠÐ½ÑĢÐ°Ð²Ð¸ÑĤÑģÑı":4226,"ĠÐļÐ¸":4227,"ĠÑĥÐ½Ð¸Ð²ÐµÑĢ":4228,"ĠÐ´Ð¾ÑģÑĤÑĥÐ¿":4229,"Ð¶Ð°ÐµÑĤ":4230,"ĠÑģÐ²Ð¾Ð¸Ð¼Ð¸":4231,"ĠÐ½Ð°Ñĩ":4232,"\">":4233,"ĠÑĦÐ°":4234,"ÑĩÑĳÑĤ":4235,"ĠÐ½Ð¸Ð·":4236,"ĠÐ³Ð¾ÑĢÑı":4237,"ĠÐ½Ð¾Ð²ÑĭÐµ":4238,"ĠÐ¿ÑĢÐ¸ÑĪÐ»Ð¾ÑģÑĮ":4239,"ĠÐ²ÑĭÐ±Ð¾ÑĢ":4240,"ĠÐ°Ð²Ð³Ñĥ":4241,"ĠÑģÑĥÐ±":4242,"ĠÐ¸Ð³ÑĢÑĭ":4243,"!\"":4244,"ĠÑģÐµÐ»ÑĮ":4245,"Ð»Ð°Ð¼Ð¸":4246,"ÐŁÑĢÐ":4247,"ĠÐ²Ð¾Ð¿ÑĢÐ¾ÑģÑĭ":4248,"Ð¼Ð¸ÑĢÐ°":4249,"ĠÐ¿Ð°ÑĤ":4250,"Ð¾Ð¼Ð°Ð½":4251,"Ð¾Ð²ÐµÑĤÐ°":4252,"Ð¼ÐµÑģÑĤÐ¸":4253,"ĠÑĢÑĥÐºÐ¾Ð²Ð¾Ð´":4254,"Ð½ÑĥÐ»Ð¸ÑģÑĮ":4255,"ĠÐļÑĢÐ¾Ð¼Ðµ":4256,"ers":4257,"ĠÐ¼Ð°ÑĢÑĤÐ°":4258,"ĠÐ²Ð·Ð°":4259,"get":4260,"ĠÐľÐ°Ðº":4261,"ÑĨÐ°Ð¼Ð¸":4262,"ĠÐµÐ´Ð¸":4263,"ĠÐ½Ð°ÑħÐ¾Ð´":4264,"ĠÐ¼Ð¸ÑĢÐ¾Ð²":4265,"ĠÑĤÐµÐ»ÐµÑĦÐ¾Ð½":4266,"ĠNo":4267,"Ð¿Ð°ÑĤÑĮ":4268,"ĠÐ¼Ð¾Ð³Ð»Ð°":4269,"ÑĩÐ¸Ð»Ð¾ÑģÑĮ":4270,"ÐļÑĤÐ¾":4271,"Ð¼Ð°Ñħ":4272,"www":4273,"ĠÐ½Ð°ÑĨÐ¸Ð¾Ð½Ð°Ð»ÑĮ":4274,"ĠÑģÐ¼Ð¾ÑĤÑĢÐµÑĤÑĮ":4275,"ÑĤÐ¼":4276,"¾ÑĨ":4277,"Ð¡Ðµ":4278,"ĠÑģÐ¾Ð±ÑĢÐ°":4279,"ĠÐ¿ÑĥÐ±Ð»Ð¸":4280,"ĠÐ¿Ð¾Ð½ÑıÑĤÐ½Ð¾":4281,"ĠÐ½ÐµÑģÐºÐ¾Ð»ÑĮ":4282,"ĠÐ±Ð»Ð°Ð³Ð¾Ð´Ð°ÑĢ":4283,"ĠÑģÐ¿ÑĢÐ°ÑĪÐ¸":4284,"ĠÑģÑĤÐ¾ÑĢÐ¾Ð½":4285,"op":4286,"</":4287,"ÑĩÐ°ÑİÑĤ":4288,"ĠÐ¸ÑģÑĩÐµ":4289,"ĠÐ¸Ð±Ð¾":4290,"ĠÐ¿Ð¾Ð¿ÑĢÐ¾Ð±":4291,"ĠÐ¼ÐµÑĢÐµ":4292,"ĠÑĤÐ°ÐºÑĥÑİ":4293,"ĠÐ¿ÐµÑĢÐµÐ³":4294,"ĠÑģÐ½Ð°ÑĩÐ°Ð»Ð°":4295,"ĠÐ³Ð¾Ð²Ð¾ÑĢÑİ":4296,"Ð¿Ð¸ÑģÐ°ÑĤÑĮ":4297,"ort":4298,"ĠÐ¿Ð¾ÑĤÑĢÐµÐ±":4299,"sqrt":4300,"36":4301,"ĠÐĽÐ°":4302,"ĠÑĢÑı":4303,"ĠÐ²Ð°ÑĢÐ¸Ð°Ð½Ñ":4304,"ĠÐ²Ð°ÑĢÐ¸Ð°Ð½ÑĤ":4305,"ĠÐ¿ÑĢÐ°ÐºÑĤÐ¸ÑĩÐµÑģÐºÐ¸":4306,"age":4307,"ĠÐ´Ð»Ð¸Ð½":4308,"ĠÐ¿ÐµÑĩÐ°":4309,"ĠÑĩÐ¸ÑģÐ»Ð¾":4310,"ÑĢÐ°ÑĨÐ¸Ð¸":4311,"ÑģÐ°Ð¼":4312,"ĠÐ¿Ð¾Ð´Ð´ÐµÑĢÐ¶Ð¸":4313,"Ġ55":4314,"ĠÐ½Ð¾Ð³Ð¸":4315,"ĠÐ¼Ð¾Ð½":4316,"µÑĳ":4317,"ĠÐ½Ð°Ð¿Ð¸ÑģÐ°Ð»":4318,"ÑĪÐµÐ½Ð¸Ðµ":4319,"Ð¾Ð½Ð°Ñħ":4320,"ĠÐ¾ÐºÑĤÑıÐ±ÑĢÑı":4321,"29":4322,"ÐķÑģÑĤÑĮ":4323,"Ð½Ð´Ðµ":4324,"ĠÐķÑģÑĤÑĮ":4325,"ĠÐºÐ»Ð¸":4326,"ĠÐ¸Ð½Ð°ÑĩÐµ":4327,"ĠÐ´ÑĢÑĥÐ·ÑĮÑı":4328,"°ÑİÑģÑĮ":4329,"ĠÐ¼Ð¾Ñī":4330,"ĠÑĥÐ²Ð¸Ð´ÐµÐ»":4331,"ĠÐ´ÑĥÑĪÐ¸":4332,"ĠÐ¾Ð±Ð¾ÑĢ":4333,"ĠÐ±Ð°Ð»":4334,"ĠÐĲÐ½":4335,"¸ÑĦÐ¸ÐºÐ":4336,"70":4337,"µÑĢÐµÐ½":4338,"ĠÐ¾ÑĤÑĢÐ°":4339,"ĠÐ½Ð°ÐºÐ¾Ð½ÐµÑĨ":4340,"ĠÐ°Ð²ÑĤÐ¾ÑĢ":4341,"Ð¶Ð¸ÑĤÐµ":4342,"ĠÐ·Ñĥ":4343,"ĠÐ¾ÑĤÐ¼ÐµÑĤÐ¸Ð»":4344,"ĠÐ½Ð¸ÐºÐ°ÐºÐ¸Ñħ":4345,"Ð¶Ð°Ð»Ð°":4346,"ĠÐ±Ð¾ÑĢÑĮ":4347,"ĠÐ»ÑİÐ±Ð»Ñİ":4348,"ĠÐ¿Ð¾Ð»ÑĥÑĩÐ¸ÑĤÑģÑı":4349,"ĠÐ²ÐµÐ·":4350,"Ð»ÐµÐ½Ð¸ÐµÐ¼":4351,"Ð»ÑıÐµÑĤ":4352,"ĠÑĢÐµÑĩÑĮ":4353,"ĠÐ²ÐµÑīÐ¸":4354,"ÑĤÐµÐ»ÑıÐ¼":4355,"ĠÐ¿Ð¾Ð¼Ð¾ÑīÐ¸":4356,"ment":4357,"ĠÐ±Ð¸Ð·Ð½ÐµÑģ":4358,"ĠÐºÐ¾ÑĢÐ":4359,"ÑĮÐ¼Ð¸":4360,"Ð·Ð¾":4361,"µÑĢÐµÐ·":4362,"ĠÐ¿ÑĢÐµÐ¶Ð´Ðµ":4363,"ĠÐ¼Ð¾Ð¶ÐµÑĤÐµ":4364,"ĠÐŁÑĢ":4365,"ĠÐļÐ°ÑĢ":4366,"ÑĤÐµÑĢÐµ":4367,"¾ÑĤÐ²":4368,"ĠÐ²ÐµÑģÐµ":4369,"Ð¾Ð²Ð°ÑĢÐ¸":4370,"ĠÐ¿ÑĢÐ¾ÑĤÑı":4371,"ÑĤÐµÐ»ÑıÐ¼Ð¸":4372,"ĠÑģÐ¾ÑĨÐ¸Ð°Ð»ÑĮ":4373,"ÑĢÐ¾Ð¿ÐµÐ¹":4374,"ĠÐ¿ÐµÑĢÐ²Ð¾Ð¹":4375,"ÑĢÐ¸Ð¿":4376,"ÑģÐ¾Ð½":4377,"ĠÐ½Ð¾ÑĢÐ¼Ð°Ð»ÑĮÐ½Ð¾":4378,"Ð½ÑİÑİ":4379,"Ð´Ð¸ÑĪÑĮ":4380,"ĠÐ´ÑĢÑĥÐ³Ð¾Ð¼":4381,"ĠÐ²Ð¿ÐµÑĢ":4382,"ĠÐ´Ð¾ÑģÑĤ":4383,"Ð»ÐµÐ½Ð½ÑĭÐµ":4384,"ĠÑĤÐµÑĩÐµÐ½Ð¸Ðµ":4385,"ĠÑĢÐµÑĪÐµÐ½Ð¸Ñı":4386,"ĠÑģÑİÐ´Ð°":4387,"µÑĪÐ½Ð¾":4388,"45":4389,"µÑĢÐ¾Ð²":4390,"ĠÑıÐ½Ð²Ð°ÑĢÑı":4391,"ĠÐłÐ¾ÑģÑģÐ¸Ñı":4392,"ĠÑĩÐµÑĤÑĭÑĢÐµ":4393,"ĠÑĩÐ»ÐµÐ½":4394,"ÑĩÐ¸ÑģÐ»Ð¸ÑĤÐµ":4395,"ÑĤÐ°Ð»Ð¸":4396,"ĠÐ¸ÑİÐ»Ñı":4397,"ĠÐ±ÑĢÐ°ÑĤÑĮ":4398,"ĠÐļÑĢÐ°Ñģ":4399,"Ð±Ð¸ÑĤ":4400,"ĠÐ¼ÐµÑĪÐ":4401,"ine":4402,"ĠÐ´Ð¾Ð±Ð°Ð²":4403,"ĠÐ·Ð°Ð²ÑĤÑĢÐ°":4404,"ĠÐ´Ð¾Ð¿":4405,"ĠÐ²Ð¾Ð»Ð¾Ñģ":4406,"ĠÑĩÐ°ÑģÐ°":4407,"ĠÐ¸Ð·Ð¾Ð±ÑĢÐ°":4408,"Ð¿Ð¾Ñĩ":4409,"ĠÐ¿ÑĢÐ°Ð²Ð¾":4410,"Ð»Ð¸Ð±Ð¾":4411,"ĠÑģÐ¾Ð¶Ð°":4412,"ĠÐ·Ð´Ð¾ÑĢÐ¾Ð²":4413,"Ð²ÐµÐ´Ðµ":4414,"ĠÐ¿ÑĢÐ¾ÐµÐºÑĤ":4415,"ÑİÑīÐ¸Ð¹":4416,"ĤÐ¾Ð±":4417,"ÑĤÐ¾Ð±":4418,"ĠÐľÐ¸ÑħÐ":4419,"Ð³Ð¾Ð´Ð½Ð¾":4420,"ĠÑĦÐ¾Ð½":4421,"µÐ´Ñĥ":4422,"ÑģÑĤÐ²Ð¾Ð²Ð°ÑĤÑĮ":4423,"ĠÐ²Ð¾Ð·Ð¼Ð¾Ð¶Ð½Ð¾ÑģÑĤÐ¸":4424,"ĠÐ»ÑĮ":4425,"ÐµÑĪÑĮÑģÑı":4426,"ĠÐ¿ÑĢÐ¾Ðº":4427,"II":4428,"ĠÑĢÐ°Ð·Ð´Ðµ":4429,"ĠÐ½Ð°ÑĪÐ¸Ñħ":4430,"Ð¼Ð¾Ð¶ÐµÑĤ":4431,"ĠÐĴÐ°Ð¼":4432,"ÑĨÐ¸ÐµÐ¹":4433,"ĠÐļÑĢÑĭ":4434,"ĠÐ¿Ð¾Ð»ÐµÐ·":4435,"ĠÐ²Ð»Ð¸Ñı":4436,"ĠÐ³ÑĢÑĥÐ¿Ð¿Ñĭ":4437,"ÑĢÐµÐ½Ð¸Ðµ":4438,"ĠÐ½Ð°Ð¿Ð°":4439,"ĠÐºÐ°Ð¶Ð´Ð¾Ð³Ð¾":4440,"ÑĩÐºÐµ":4441,"ect":4442,"ĠÐ·Ð¸Ð¼":4443,"ĠÐ±ÐµÑģÐ¿":4444,"ÐºÐ¾Ð²Ð°":4445,"ĠÐ²ÐµÑĤ":4446,"Ð½Ð°Ð²Ð»Ð¸":4447,"µÐ½ÑĮÐµ":4448,"ĠÐ±Ð¾Ð¹":4449,"°ÑĨÐ¸Ð¹":4450,"ĠÑĥÐ¶Ð°Ñģ":4451,"Ð»Ð°ÑĪÐµ":4452,"ĠÐ²ÑĭÑģÐ":4453,"ĠÐ¸ÑİÐ½Ñı":4454,"ĠÐ´ÐµÐ²Ð¾Ñĩ":4455,"ĠÐ»Ð¸ÑĨ":4456,"ĠÐ°Ð¿ÑĢÐµÐ»Ñı":4457,"ĠÑģÐ»Ñĭ":4458,"ĠÐ°Ð²Ð³ÑĥÑģÑĤÐ°":4459,"ÑģÐ°Ð¶Ð¸":4460,"ĠÐ¾ÐºÐ¾Ð½ÑĩÐ°":4461,"ÑģÐºÐµ":4462,"ÑĢÐ¸Ð¼":4463,"ÑĤÐ¸ÑĤÑĮÑģÑı":4464,"ĠÐ¼ÐµÐ´Ð":4465,"ĠÐ¿Ð¾ÑģÐºÐ¾Ð»ÑĮÐºÑĥ":4466,"Ð¶Ð¸Ð¼":4467,"Ð»ÑĭÐ¼":4468,"ĠÐ²ÑĭÐ±":4469,"ĠÐ´Ð¸Ð°":4470,"ĠÐ²Ð°Ð¼Ð¸":4471,"ÑĪÐµÐ½":4472,"ĠÑĤÑĢÐµÑħ":4473,"33":4474,"Ìģ":4475,"ĠÐ»Ð¸ÑĨÐµ":4476,"ĠÑħÐ¾ÑĤÐ¸":4477,"ĠÑħÐ¾ÑĤÐµÐ»Ð¾ÑģÑĮ":4478,"ÑĢÐ¼Ð°":4479,"Ð¾Ñĩ":4480,"ĠÐ¿ÑĢÑıÐ¼":4481,"ĠÐ·Ð½Ð°ÐµÑĪÑĮ":4482,"Ð´Ð¸Ð¼":4483,"ĠÐ¼Ð½Ð¾Ð³Ð¸Ñħ":4484,"ÐĳÑĭ":4485,"ÑĩÐ¸ÐºÐ°":4486,"ĠÐ¢ÐĲÐ¡Ð¡":4487,"ĠÐ¼Ð³":4488,"ĠÐ¼Ð°ÑĤÑĮ":4489,"ÑĤÐ²ÐµÑĢ":4490,"Ð½Ð°Ð´Ð»Ðµ":4491,"ĠÐ´ÐµÑģÑı":4492,"',":4493,"ÑĤÐµÐ»ÑĮÐ½ÑĭÐ¼":4494,"ĠÐ·Ð°Ð½Ð¸Ð¼Ð":4495,"ÐµÑģÐ»Ð¸":4496,"os":4497,"ĠÐ¾Ð¿ÑĭÑĤ":4498,"Ð»Ð°Ð¹":4499,"ĠÐ¼Ð¾ÐµÐ³Ð¾":4500,"ĠÑģÐ°Ð¹ÑĤÐµ":4501,"Ð»ÐµÐ½Ð¸Ð¹":4502,"ÑħÐ¾Ð´ÑıÑīÐ":4503,"ĠÐ±ÐµÐ´":4504,"ĠÐ¼Ð½ÐµÐ½Ð¸Ðµ":4505,"ĠÐµÐ´":4506,"ĠÐ¾ÑĤÐºÑĥÐ´Ð°":4507,"Ð¾Ð¸ÑĤÑĮ":4508,"ĤÐ¾Ð³Ð¾":4509,"ÑĤÐ¾Ð³Ð¾":4510,"ĠÐ¿Ð¾Ð¼Ð¾ÑīÑĮ":4511,"Ð·Ð°ÑĤÑĮÑģÑı":4512,"ĠÐ¿ÐµÑĢÐ²Ð¾Ð³Ð¾":4513,"ĠÐ½ÐµÑĦ":4514,"ĠÐ³ÑĢÑı":4515,"ĠÐ¸ÑģÑĤÐ¾ÑĢÐ¸Ñı":4516,"¸ÑīÐ°":4517,"ĠÐ±ÐµÐ»":4518,"ĠÑĢÐ°ÑģÐ¿ÑĢÐ¾ÑģÑĤÑĢÐ°":4519,"ÑĤÑĭÑħ":4520,"¾Ñĥ":4521,"ĠÐºÐ¾Ð¼Ð¿Ð»ÐµÐº":4522,"ĠÐ´ÐµÐ»Ð°ÐµÑĤ":4523,"ir":4524,"ĠÐºÐ¾Ð¼Ð¿Ð°Ð½Ð¸Ñı":4525,"ÑīÐ¸Ð¹":4526,"Ð»Ð¾Ð³Ð¾":4527,"ĠÑģÐ¸ÑģÑĤÐµÐ¼Ð°":4528,"ĠÐ±Ð¾Ð³Ð":4529,"ĠÐ¼Ð°ÑĪÐ¸Ð½Ñĭ":4530,"ÑĩÐ½Ð¾Ð¼":4531,"ÑħÐ¾Ð´Ð°":4532,"ĠÐºÐ¾Ð¼Ð¿ÑĮÑİ":4533,"ack":4534,"ÑģÑĤÐ¸ÑĤÑĥ":4535,"Ð¾Ð½Ð¸Ð¸":4536,"ĠÑĥÐ±Ð¸":4537,"Ð»ÑıÑħ":4538,"alse":4539,"Ð¿Ð¸ÑģÑĭ":4540,"ĠÐ´ÐµÐºÐ°Ð±ÑĢÑı":4541,"ĠÐµÐ·":4542,"ĠÐ³ÑĢÐ¾Ð¼":4543,"ĠÐ°Ð³ÐµÐ½ÑĤ":4544,"ĠÐ¿Ð¾Ð¿Ñĭ":4545,"ĠÐ¿Ð¾Ð²Ð¾Ð´Ñĥ":4546,"ĠÑĢÐ°Ð½ÐµÐµ":4547,"Ð¢Ð¾Ð»ÑĮÐºÐ¾":4548,"Ġ54":4549,"ĠÐ¿ÐµÑĢÐ¸Ð¾Ð´":4550,"ÑģÑĥÑĢ":4551,"ĠÑģÐ½Ñı":4552,"ĠÑĥÑĩÐ°ÑģÑĤÐ¸Ðµ":4553,"ĠÑĥÑĪ":4554,"ĠÐ½ÐµÐ¾Ð±ÑħÐ¾Ð´Ð¸Ð¼Ð¾":4555,"ÐºÐ¸Ð½":4556,"Ð±Ð¸ÑĤÑĮ":4557,"ĠÐ°ÑĢÐ¼Ð¸Ð¸":4558,"Ð½Ð´Ñĭ":4559,"ĠÐ¸Ð´ÑĤÐ¸":4560,"ĠÐ¸Ð·Ð²ÐµÑģÑĤÐ½Ð¾":4561,"ĠÐºÐ°ÐºÐ¸Ñħ":4562,"ĠÑĥÑģÐ»Ñĥ":4563,"Ð¾Ð²Ð¾Ð³Ð¾":4564,"ĠÐ»ÑİÐ´ÑıÐ¼":4565,"ĠÑģÑĤÐ°Ð²":4566,"ÐŁÐµÑĢÐµ":4567,"ÐłÐ¾Ñģ":4568,"ĠÑģÐ°Ð¼ÑĭÑħ":4569,"ÐľÐŀ":4570,"ĠÐ³Ð¾Ð²Ð¾ÑĢÑı":4571,"ĠÐĵÑĥ":4572,"Ð¡ÐºÐ¾Ð»ÑĮÐºÐ¾":4573,"ĠÐ¿ÑĢÐ¸ÑĪÐ":4574,"¾ÑĢÐ´":4575,"Ð´ÐµÑİÑģÑĮ":4576,"ĠÑĤÐ¸ÑħÐ":4577,"µÐ¿":4578,"iz":4579,"ĠÐ½ÐµÐ´":4580,"ĠÐ½Ð¾Ð²ÑĭÑħ":4581,"ĠÐ¾ÑĢÐ³Ð°Ð½Ð¸Ð·Ð°ÑĨÐ¸Ð¸":4582,"Ð»ÐµÐ½Ð½Ð¾Ð¹":4583,"Ð²ÑĪÐ°Ñı":4584,"ĠÑĤÐ¾Ð¿":4585,"¾ÑİÐ·":4586,"Ġe":4587,".,":4588,"ĠÐ¿Ð¾ÑıÑģ":4589,"ĠÐ´Ð¾Ð»Ð»Ð°ÑĢÐ¾Ð²":4590,"ĠÐ¿ÐµÐ½":4591,"ĠÑģÑĩÐ°ÑģÑĤ":4592,"ĠÐ¾ÑĩÐµÑĢÐµÐ´":4593,"ĠÐºÑģÑĤÐ°ÑĤÐ¸":4594,"Ġ198":4595,"Ð¾Ð±Ð°":4596,"ĠÑĥÐ»Ð¸ÑĨÐµ":4597,"Ð´Ð°Ð½":4598,"ĠÐ¿Ð¾ÑĢÑıÐ´ÐºÐµ":4599,"Ð¾ÑĤÐ²":4600,"Ð¿Ð°Ð½":4601,"ĠÐ¶ÐµÐ»ÐµÐ·":4602,"Ð½ÐµÐ½Ð¸Ð¹":4603,"ĠÐ°Ð±ÑģÐ¾Ð»ÑİÑĤ":4604,"ÑĤÐµÐ»ÑĮÐ½Ð¾Ðµ":4605,"ÐµÑħÐ°Ð»":4606,"Ð½Ð¸ÐºÐµ":4607,"ĠÐºÐ°ÐºÐ¸Ð¼":4608,"ĠÐ´Ð¾Ð¼Ðµ":4609,"ĠÐ½Ð¾ÑıÐ±ÑĢÑı":4610,"ĠÐ¿Ñĭ":4611,"ĠÐĵÐµÑĢÐ¼Ð°":4612,"Ð¿ÑĢÐ°Ð²":4613,"Ð°Ñĥ":4614,"ĠÑĤÑĢÐµÐ±Ñĥ":4615,"ĠÐŁÑĢÐµÐ´":4616,"ĠÑģÐµÑĢÐ²Ð¸":4617,"ĠÐ¼Ð°Ð³Ð°Ð·Ð¸":4618,"ÑĢÐ°Ð·Ð´Ð¾":4619,"ÑĩÐ¸ÐºÐ¾Ð²":4620,"ĠÑģÐ»ÐµÐ´ÑĥÑİÑīÐ¸Ð¹":4621,"ĠÐºÐ¾ÑĤ":4622,"ĠÐ¾ÑĤÐµÑĨ":4623,"ia":4624,"ĠÐ¿ÑĢÐµÐºÑĢÐ°Ñģ":4625,"ĠÐ¾Ð·Ð½Ð°":4626,"ĠÐ²ÐµÐºÐ°":4627,"ÑĩÐ¸ÐºÐ¸":4628,"ĠÐ½ÐµÑĳ":4629,"ĠÐ½Ð°ÑģÑĤ":4630,"ĠÐ´Ð²Ð¾ÑĢ":4631,"Ð¿Ð°ÑĢÐ°":4632,"Ð»Ñĳ":4633,"up":4634,"ÐºÐ°ÑĢ":4635,"ÑĪÐµÐ¼":4636,"Ð½Ð¾ÑģÑĤÑı":4637,"Ð·ÑĭÐ²Ð°ÐµÑĤÑģÑı":4638,"ĠÐ½ÐµÐ±Ð¾Ð»ÑĮÑĪ":4639,"ÐŁÑĢÐµ":4640,"ÑĢÐ¾ÑĤÐ¸Ð²":4641,"ĠÑģÐ°Ð¼Ð¾":4642,"ĠÑĢÐµÐº":4643,"Ġ56":4644,"ĠÐºÑĢÐµÑģ":4645,"ĠÐ¾ÑĤÐ²ÐµÑĤÑģÑĤÐ²ÐµÐ½":4646,"ĠÐ²Ð¾Ð¾ÑĢÑĥ":4647,"ĠÑģÐ¸ÑĤÑĥÐ°ÑĨÐ¸Ñı":4648,"ĠÑĪÐ¸":4649,"ĠÐ·Ð°Ñģ":4650,"ĠÑĢÐµÑģÑĥÑĢ":4651,"ÑĢÑĥÑİÑĤ":4652,"Ġ53":4653,"ĠÐ¾ÑĤÐ²":4654,"Ð¾Ð¼Ð°ÑĤ":4655,"ĠÐ½ÑĥÐ¶Ð½Ñĭ":4656,"Ð¾ÐµÐ¼":4657,"ÑĢÑĥÐµÑĤÑģÑı":4658,"ĠÑĥÐ¼ÐµÑĢ":4659,"ÑģÐµÐ´":4660,"ĠÐ½ÐµÐ¾Ð±ÑħÐ¾Ð´Ð¸Ð¼":4661,"ĠÐ¿ÑĢÐ¸Ð½Ð°Ð´Ð»Ðµ":4662,"ĠÑģÐ¾Ð·Ð½Ð°":4663,"ĠÐ¿Ð¾Ð±Ð":4664,"Ð·Ð°Ð¿":4665,"Ġclass":4666,"Ð´ÑıÑĤ":4667,"ÑĢÐµÑīÐ":4668,"ĠÐºÐ¾Ð½ÑĦ":4669,"ÑĩÐµÐ½Ð¸Ð¸":4670,"ĠÑĢÐµÐ³Ñĥ":4671,"ĠÐ¿Ð¾ÑģÐ¼Ð¾ÑĤÑĢÐµÑĤÑĮ":4672,"ay":4673,"ĠÐ·Ð²Ð¾Ð½":4674,"ÑĬÐµÐ·":4675,"ĠÑĤÐ°ÐºÐ¾Ð¼":4676,"Ð½Ð¸ÐºÐ°Ð¼":4677,"ĠÐĲÐ»ÐµÐºÑģÐ°Ð½Ð´ÑĢ":4678,"ĠÐ³Ð¾Ð²":4679,"ðŁ":4680,"°Ð½ÑĤÐ°":4681,"ĠÐ¾Ð¶Ð¸":4682,"ÑĩÑĥÐ²":4683,"ĠÑħÐ¾ÑĩÐµÑĪÑĮ":4684,"ĠÐ¿ÑĢÐ¸ÑģÑĥÑĤ":4685,"ĠÐ¢ÐµÐ¼":4686,"Ð½Ð¸Ð»Ð°":4687,"ĠÑĢÑĥÐºÐ°Ñħ":4688,"Ð³Ð¾ÑĤ":4689,"ĠÐ·Ð°ÑĢÐ¿":4690,"ĠÐĿÐ¾Ð²Ð":4691,"ĠÑĢÐµÐ°Ð»ÑĮÐ½Ð¾":4692,"Ð¾Ð´Ð¾Ð²":4693,"ĠÐ½ÐµÐ´ÐµÐ»Ñİ":4694,"ĠÐ¾ÑĤÐºÐ°Ð·Ð°":4695,"ĠÐ±Ð¾Ð¼":4696,"Ð»ÑĮÐ½Ð°Ñı":4697,"ÑĥÑĪÐºÑĥ":4698,"Ð¡Ñĥ":4699,"ÑİÑīÐ¸Ñħ":4700,"ÑĢÐ°Ð½ÑĨÑĥ":4701,"ĠÐ²Ð¾Ð·Ð½Ð¸Ðº":4702,"ĠÐ´ÑĢÑĥÐ³Ð¸Ð¼":4703,"ĠÐĹÐµÐ¼":4704,"ĠÐ¼ÐµÑģÑıÑĨÐ°":4705,"ĠÑıÐ²Ð½Ð¾":4706,"ÐĲÐł":4707,"ÑĤÐ²ÐµÑĢÐ´Ð":4708,"ĠÐ¿ÑģÐ¸Ñħ":4709,"ĠÐ¿Ð¾Ð³Ð¸Ð±":4710,"ĠÐ·Ð°Ð´ÐµÑĢÐ¶Ð":4711,"ĠÐ¿Ð¾Ð¶Ð°Ð»ÑĥÐ¹ÑģÑĤÐ°":4712,"¸Ð½Ð¾Ñģ":4713,"ĠÐ²Ð·ÑıÐ»":4714,"Ð¾ÑĢÐ¸":4715,"ÑĩÐµÑģÐºÐ¾Ðµ":4716,"¾ÑģÐ":4717,"ĠÐ¼Ð¸Ðº":4718,"Ð¾Ð´ÐµÐ¹":4719,"ĠÐ²Ð¾ÑģÐ¿":4720,"ĠÐ´ÑĢ":4721,"ĠÐ¿ÑĢÐ¸Ð½Ð¸Ð¼Ð°":4722,"ĠÐ³Ð¾Ð»Ð¾Ð²Ðµ":4723,"ÐµÐ¼ÑģÑı":4724,"Ð¸Ð½Ð¾Ñģ":4725,"ĠÑĤÐ¾Ð²Ð°ÑĢÐ":4726,"ÑĩÐ°Ð¼Ð¸":4727,"ĠÐ³Ð»Ð°Ð²Ð½Ð¾Ðµ":4728,"ĠÑĥÐ¿ÑĢÐ°Ð²Ð»ÐµÐ½Ð¸Ñı":4729,"Ð¾Ð»Ñİ":4730,"ĠÐ¿Ð¾Ð¸":4731,"ĠÐļÐ¸ÑĤÐ°":4732,"(\"":4733,"ĠÐ§ÐµÑĢ":4734,"ĠÐ¼Ð¾ÑĢÐµ":4735,"ĠÐ¸Ð½ÑĤÐµÑĢÐ½ÐµÑĤ":4736,"ĠÑģÐ¿Ð¾ÐºÐ¾Ð¹Ð½Ð¾":4737,"ĠÑģÐ¼ÑĭÑģÐ»":4738,"art":4739,"Ð¾Ð½Ñı":4740,"ÑĥÑį":4741,"ÑĪÑĥ":4742,"ĠÐ¿ÑĢÐµÐ·Ð¸Ð´ÐµÐ½ÑĤÐ°":4743,"ĠÐ²ÑĭÐ´Ðµ":4744,"ÑħÐ¾Ð´Ð¸ÑĤÑĮ":4745,"ĠÐºÐ¾Ð½ÑĤÑĢÐ°":4746,"ĠÐĴÐ¾Ð»":4747,"ĠÑģÐ»ÐµÐ´ÑĥÐµÑĤ":4748,"ĠÐ»ÑİÐ±Ð¸":4749,"if":4750,"ĠÐ¶Ð¸Ð»":4751,"37":4752,"ĠÐ³Ð¾ÑģÑĥÐ´Ð°ÑĢÑģÑĤÐ²Ð°":4753,"¸Ð¼ÐµÑĤÑĮ":4754,"Ð¸Ð¼ÐµÑĤÑĮ":4755,"ĠÐ¥Ð°":4756,"Ð½Ð°Ñİ":4757,"ĠÑĥÐ²Ð°":4758,"ĠÑĤÑĢÐ°Ð²":4759,"ĠÐ·Ð°Ð¼ÐµÑĤÐ¸Ð»":4760,"ĠÐ½ÑĥÐ¶Ð½Ð°":4761,"Ġif":4762,"ÑĩÐ½Ð¾ÑģÑĤÐ¸":4763,"Ð¿Ð¾Ð¹":4764,"ĠÐ½Ð°Ð¼Ð¸":4765,"im":4766,"ĠÑĢÐµÐ±":4767,"ĠÐ¾Ð±ÐµÑīÐ":4768,"39":4769,"ĠÐłÐ¾ÑģÑģÐ¸Ð¹":4770,"ĠÑĢÐ°Ð·Ð¼ÐµÑĢ":4771,"Ġ57":4772,"ĠÐ½ÐµÐ²":4773,"ĠÐ¸Ð¼ÐµÐ½Ð¸":4774,"ĠÐĴÐ»Ð°Ð´Ð¸Ð¼Ð¸ÑĢ":4775,"ĠÐ¿Ð¾Ð¸Ñģ":4776,"ĠÐ¶ÐµÑĢ":4777,"ĠÐ¶ÑĥÑĢÐ½Ð°Ð»Ð¸":4778,"ĠÐ±ÐµÑģÐ¿Ð»Ð°ÑĤ":4779,"ĠÐ±ÑĢÐ°ÑĤ":4780,"ĠÐ¿Ð¾ÑģÐ»ÐµÐ´Ð½Ð¸Ð¹":4781,"ĠÐ¿ÑĢÐ¾Ð´Ð":4782,"Ð¿Ð¾Ð´Ð°":4783,"ĠÐ»Ð¸ÑĪÐ":4784,"ĠÑģÐºÐ¾ÑĢÐ¾":4785,"ĠÑĥÑģÐ»ÑĭÑĪÐ":4786,"ĠÐ¿Ð¾Ð»ÑĥÑĩÐ°ÐµÑĤÑģÑı":4787,"urn":4788,"ĠÑĥÐ½Ð¸ÑĩÑĤ":4789,"ĠÑģÐ´Ð°":4790,"ĠÐºÐ°ÑģÐ°":4791,"ĠÐ¼Ð¸Ð½Ð¸Ð¼Ñĥ":4792,"Ð³Ð°Ð¼Ð¸":4793,"ĠÐºÐµÐ¼":4794,"ÑĤÐ¸ÑħÐ":4795,"Ð¶Ð°ÑīÐ":4796,"ÑĤÐ¼Ð":4797,"ĠÐ»Ð¸ÑĩÐ½Ð¾":4798,"ÑĩÐ¸Ð»Ð¸":4799,"ĠÐ¸Ð³ÑĢÑĥ":4800,"ĠÐ¿ÑĢÐ¸Ð²Ðµ":4801,"ĠÐ½Ð¾Ð²Ð¾Ð³Ð¾":4802,"ĠÐ¼ÐµÑħÐ°":4803,"°Ð´Ðµ":4804,"Ð½Ð¸Ð¼Ð°ÑĤÑĮ":4805,"Ð²Ð¾Ð»Ñİ":4806,"ÑĤÐ¸Ð¼":4807,"Ġde":4808,"ĠÑĤÐ¾ÑĩÐºÐ¸":4809,"ĠÐ´ÑĢÑĥÐ³Ð¾Ðµ":4810,"Ð½ÐµÐ¼Ñĥ":4811,"ĠÐ¿ÑĢÐ¸Ð²Ð»Ðµ":4812,"ĠÐĵÐ°":4813,"Ð¾ÑĤÑıÑĤ":4814,"ĠÐ¢ÑĥÑĤ":4815,"Ġ58":4816,"ÑīÐµÐ½":4817,"ĠÐ°Ñĥ":4818,"ÐŀÐ½Ð°":4819,"ĠÐ¾Ñĩ":4820,"ĠÐ³Ð¾Ð²Ð¾ÑĢÐ¸ÑĤÑģÑı":4821,"ĠÐ¿Ð¾ÐºÐ¸":4822,"Ð¿Ð°Ð´":4823,"ĠÐ¿Ð¾ÑģÑĤÐµ":4824,"ĠÐ¸Ð½Ð¾Ñģ":4825,"ĠÐ´ÐµÐ¿ÑĥÑĤÐ°":4826,"ĠÐ¸Ð¼ÐµÑĤÑĮ":4827,"ĠÐ½Ð°ÑĩÐ°Ð»Ð¸":4828,"ÑĩÑĪÐµ":4829,"ÑĬÐ":4830,"ÑįÐ¹":4831,"ĠÑĤÐµÐ»Ð¾":4832,"Ð¢Ð°Ð¼":4833,"Ð½ÐµÑģÑĤÐ¸":4834,"ĠÐºÐ°ÐºÑĥÑİ":4835,"Ð¿Ð¾Ð²":4836,"ÑĤÐ¸Ñİ":4837,"ĠÐ¾Ð¿Ñĥ":4838,"ĠÐ´Ð°ÑĤÑĮ":4839,"Ð¶ÐµÐ»Ð¸":4840,"ĠÐ¾ÐºÑĢÑĥÐ³":4841,"ĠÐºÐ¾Ð¼Ð¼Ñĥ":4842,"ĠÑģÑĢÐ¾Ðº":4843,"Ð°Ñį":4844,"ĠÑĢÐ¾Ð·":4845,"Ð¿ÑĢÐ¾ÑĩÐµÐ¼":4846,"ÑĢÐµÐ»Ð°":4847,"°ÑĨÐ¸ÐµÐ¹":4848,"ĠÐŁÐ¾ÐºÐ°":4849,"Ð´ÑĢÐ°Ð²":4850,"ĠÑĦÐµÐ²ÑĢÐ°Ð»Ñı":4851,"ĠÐ³Ð¾ÑĢÐ°Ð·Ð´Ð¾":4852,"ĠÐ²ÑĭÑĪÐµÐ»":4853,"ÑģÑĤÑĢÐ¾Ðµ":4854,"ĊĠĠĠĠĠĠĠĠĠĠĠĠĠĠĠĠĠĠĠ":4855,"ÐĴÑģÑĳ":4856,"ĠÐ´Ð¾ÑĢÐ¾Ð³":4857,"ĠÐ¿Ð¾ÑģÐ»ÐµÐ´Ð½Ð¸Ðµ":4858,"Ð¿Ð¸ÑĤÑĮ":4859,"ĠÐ½Ð°ÑģÐµÐ»ÐµÐ½Ð¸Ñı":4860,"ÑĢÐµÐ»Ð¸":4861,"ĠÐ°Ð²ÑĤÐ¾Ð¼Ð°":4862,"ĠÐ²ÐµÑģÑĮÐ¼Ð°":4863,"ĠÐºÐ¾Ð¼Ð½Ð":4864,"ÑĩÐ½Ð¾ÑģÑĤÑĮ":4865,"64":4866,"34":4867,"ÑģÑİ":4868,"ĠÑģÐµÑģÑĤ":4869,"ÑĢÐ°Ð":4870,"ĠÑħÐ¾Ð·ÑıÐ¹":4871,"ĠÐ¤ÐµÐ´Ðµ":4872,"ĠÑĨÐµÐ»Ð¾Ð¼":4873,"iew":4874,"ĠÐºÑĥÐ¿Ð¸ÑĤÑĮ":4875,"Ð»ÑĮÐ½ÑĭÐ¼":4876,"==":4877,"ÑģÑĤÐ¾Ñı":4878,"38":4879,"Ð¶Ð°Ð»Ð¸":4880,"ĠÐ¿ÑĢÐ¸Ð´ÐµÑĤÑģÑı":4881,"/(-":4882,"ĠÐ·ÑĢÐµÐ½Ð¸Ñı":4883,"ÐµÑĤÑĭ":4884,"ext":4885,"¾ÑĢÐ´Ð":4886,"ĠÐ¿ÐµÑĢÐµÐ¼ÐµÐ½":4887,"ĠÑĢÐµÑģÐ¿ÑĥÐ±Ð»Ð¸":4888,"Ð²Ð¾Ð·ÑĮ":4889,"ĠÑĦÐ°ÐºÑ":4890,"ĠÑĦÐ°ÐºÑĤ":4891,"ĠÐ¿ÑĢÐ¾ÑĤÐ¸":4892,"ĠÐ´ÐµÐ»":4893,"ĠÐ¿Ð¾Ð´ÑĩÐµÑĢ":4894,"ĠÐ´Ð²Ð¸Ð³Ð°":4895,"ĠÑĢÐ°Ð¼ÐºÐ°Ñħ":4896,"ĠÐ½Ð°Ð¸":4897,"ĠÐ¿Ð¾Ð´Ð³Ð¾ÑĤÐ¾Ð²":4898,"ĠÐ´ÑĢÑĥÐ³Ð¾Ð³Ð¾":4899,"ĠÐ·Ð°ÐºÐ°":4900,"Ð±Ð¸Ð»Ð¸":4901,"Ð½ÐµÑĢÐ°":4902,"ÑĩÐµÑģÑĤÐ²":4903,"ĠÐ¿Ð¾Ð¼Ð¾ÑĩÑĮ":4904,"ÐºÐ»Ð°Ð´Ñĭ":4905,"Ġ51":4906,"ĠÐ²Ð°Ð¶Ð½Ð¾":4907,"ĠÐ°Ñį":4908,"ĠÐ¿Ð¾Ð»Ð¸ÑĤÐ¸ÑĩÐµÑģ":4909,"ĠÐĶÐ¾":4910,"Ġ52":4911,"ĠÐ¿Ð»Ð¾Ñħ":4912,"0000":4913,"ĠÐºÐ°Ð±Ð¸":4914,"Ð»Ð¾Ð³Ð¸":4915,"ĠÐ½Ð¸Ð¶Ðµ":4916,"ÑĢÐµÐ¼ÐµÐ½Ð½Ð¾":4917,"ÑĪÐºÐ¸":4918,"ÐľÐ¾Ð¶ÐµÑĤ":4919,"ĠÐ¿Ð¾Ð´Ðµ":4920,"Ġ64":4921,"µÐ½Ð°":4922,"ĠÑįÐºÑģÐ¿ÐµÑĢ":4923,"ĠÐ¿ÑĢÐ¾Ð¸Ð·Ð²Ð¾Ð´Ð½Ð°Ñı":4924,"ĠÐ¢Ñĥ":4925,"ĠÐ²Ð¾ÑĢ":4926,"ÑģÐ¸Ð»":4927,"ÐĶÐµ":4928,"ĠÐĴÐµÐ´ÑĮ":4929,"ĠÑĢÐ°Ð·Ð²Ð¸ÑĤÐ¸Ñı":4930,"ÑĩÐ¸Ñħ":4931,"ÐĿÐ¸":4932,"Ð¾ÑĢÐ¾ÑĪÐ¾":4933,"ÑĢÐ¾ÑĪÐ":4934,"Ð´Ð¾Ñģ":4935,"ĠÐ¿Ð¾Ð»Ð¾Ð¶Ð¸":4936,"ĠÑģÐ»Ð¾Ð¶Ð½Ð¾":4937,"ĠÐ¿ÑĢÐ¾Ñı":4938,"ory":4939,"ĠÐ¾Ð±ÑıÐ·Ð°ÑĤÐµÐ»ÑĮÐ½Ð¾":4940,"ÑĥÑģÑĤÐ¸ÑĤÑĮ":4941,"ĠÑĤÑİ":4942,"ĠÑĢÑĥÐº":4943,"ĠÑĥÑĩÐ°ÑģÑĤÐ²":4944,"ĠÑĢÐ°ÑģÑģÐºÐ°Ð·Ñĭ":4945,"Ġ59":4946,"ĠÐ¿Ð¾Ð²ÑĤÐ¾ÑĢ":4947,"ĠÐ·Ð½Ð°Ð¼ÐµÐ½Ð°":4948,"ĠÑģÑĤÐ°Ð½Ð´Ð°ÑĢ":4949,"Ð¶Ð½ÑĭÐ¹":4950,"ÑĥÑīÐµÑģÑĤÐ²Ð":4951,"ÑĪÐµÐº":4952,"ĠÐ¸Ð¼ÐµÑİÑ":4953,"ÑĢÑĭÐ":4954,"('":4955,"ÑĢÐ°ÑĩÐ¸":4956,"ĠÐľÐ¸Ð½":4957,"ĠÐ¼Ð¾Ð¶ÐµÑĪÑĮ":4958,"ĠÐķÑīÐµ":4959,"ĠÐļÐ¾ÑĢ":4960,"ĠÐ°Ð½ÑĤÐ¸":4961,"ĠÐ¸Ð½Ð¾ÑģÑĤÑĢÐ°Ð½":4962,"ÐºÐ°Ñĥ":4963,"ÑĢÐ¾ÑĤ":4964,"ĠÐ¿Ð¾Ð´ÑĥÐ¼Ð°Ð»":4965,"ĠÐ¾ÑĩÐµÐ²Ð¸":4966,"all":4967,"ÑĢÑĭÐµ":4968,"ĠÐ¾ÑģÐ¾Ð±Ð¾":4969,"ÑĩÐµÐ½Ð¸ÐµÐ¼":4970,"ÑĤÐµÑĪÐ":4971,"ĠÐµÑħ":4972,"ĠÐĴÐ°Ñģ":4973,"ĠÐ´Ð²ÐµÑĢÐ¸":4974,"ĠÑħÐ²Ð°ÑĤÐ°ÐµÑĤ":4975,"ĠÐ½ÐµÐ¼ÐµÑĨ":4976,"ÑĢÐµÐ¼Ñı":4977,"Ð±Ð°Ð²":4978,"ĠÐ¼ÐµÑĤÑĢÐ¾Ð²":4979,"ĠÑħÐ¾Ð´Ðµ":4980,"ĠÐ°Ð²ÑĤÐ¾":4981,"ĠÑħÑĥÐ¶Ðµ":4982,"ĠÑĨÐ°ÑĢ":4983,"Ð¿Ð¸Ð»":4984,"ĠÐ³Ð¾ÑģÑĤÐ¸":4985,"°ÑİÑīÐ¸Ðµ":4986,"Ð½Ð¾Ñİ":4987,"Ð³Ð°Ð»":4988,"ĠÐ²ÑĭÑģÐ¾Ðº":4989,"ĠÑĩÐµÐ¼Ð¿Ð¸Ð¾Ð½Ð°":4990,"ĤÐ¾Ðµ":4991,"ÑĤÐ¾Ðµ":4992,"Ð²Ð¾ÑĢÐµ":4993,"Ġ65":4994,"¾ÑĪÑĥ":4995,"ĠÑĥÐ´Ð¸Ð²Ð¸":4996,"ĠÑĢÐ°Ð·Ð¼Ðµ":4997,"ÑĢÐ¸Ð½Ð°":4998,"Ð»Ð¸Ð¼":4999,"so":5000,"ĠÐ¼ÐµÑģÑıÑĨÐµÐ²":5001,"ĠÐ²Ð¸Ð´Ð¸Ð¼Ð¾":5002,"Ð¶ÐµÑĤÑģÑı":5003,"ĠÑģÑĤÑĢÑĥÐº":5004,"ĠÐ³Ð»Ð°Ð²Ð°":5005,"ĠÐ¼Ð»ÑĢÐ´":5006,"ÐºÐ¾Ð¼Ð":5007,"ĠÐ·Ð°Ð¿Ð»Ð°":5008,"ĠÐ´ÐµÑĪÐ":5009,"ÑīÐ°Ñı":5010,"ĠÐ²ÑģÐµÐ¼Ñĥ":5011,"Ð¿ÑĢÐ¾ÑģÑĤÐ¸ÑĤÐµ":5012,"ĠÐ¾ÑģÐ²Ð¾Ð±":5013,"ÑĢÐ³Ñĥ":5014,"ĠÑĤÑĥÑĢ":5015,"ĠnÐĴ":5016,"ÑĢÐ¾Ðµ":5017,"ÑĩÐµÑģÐºÐ¸Ð¼":5018,"div":5019,"ÑĤÑĥÐ°Ð»ÑĮ":5020,"¾ÑĪÐ»Ð°":5021,"ĠÐ½Ð¾ÑĩÑĮÑİ":5022,"ÐłÐµÑĪÐ¸ÑĤÐµ":5023,"ĠÑģÑĨÐµ":5024,"ĠÐºÐ°Ð¿Ð¸ÑĤÐ°":5025,"ÑĢÐ´Ð°":5026,"ĠÐ¿ÑĢÐ¾ÑģÑĤÑĢÐ°Ð½":5027,"ĠÐºÐ°ÐºÐ¾Ð³Ð¾":5028,"ĠÐ³ÑĢ":5029,"Ð´Ð¸Ð¸":5030,"xt":5031,"ĠÑģÐ²Ð¸Ð´Ðµ":5032,"ĠÐ²Ð·Ð°Ð¸Ð¼":5033,"ĠÐ¸Ð¼ÐµÑİÑĤ":5034,"ĠÐ½ÐµÐºÐ¾ÑĤÐ¾ÑĢÑĭÑħ":5035,"ĠÑĢÐ°Ð¹Ð¾Ð½Ð°":5036,"ÑıÑĤÑĮÑģÑı":5037,"ÑĩÐ¸Ð»ÑģÑı":5038,"ĠÑĪÐ°Ð³":5039,"Ð½Ð°ÑĩÐ°":5040,"ĠÑģÐ°Ð¼ÑĭÐ¼":5041,"ĠÑĤÐµÑħÐ½Ð¸":5042,"¸ÑĨÐ¸Ñİ":5043,"~~":5044,")/(-":5045,"ĠÐ¿ÑĢÐ¾Ð±Ð":5046,"ĠÑĢÐ°Ð±Ð¾ÑĤÐ°Ð»":5047,"ĠÐ¿Ð¾Ð´ÑĢÐ¾Ð±":5048,"ĠÐľÐ¾ÑģÐºÐ²Ñĭ":5049,"ĠÐ¿Ð¾Ð¼Ð¾Ð³":5050,"Ð¿Ð¾Ð·Ð":5051,"ph":5052,"ĠÐ¼Ð¾Ð¸Ñħ":5053,"Ð½Ð´ÐµÐº":5054,"µÐ½Ð¾Ðº":5055,"ĠÑĦÑĢÐ°Ð½ÑĨÑĥ":5056,"Ð³Ð¾ÑĢÐ¾Ð´":5057,"ĠÐ²ÑĭÑıÑģ":5058,"°Ð²Ð°":5059,"Ð²Ð¸Ð´Ñĥ":5060,"ĠÐ¿ÐµÑĢÐ²ÑĥÑİ":5061,"ity":5062,"ĠÐ¼Ð°ÑĪÐ¸Ð½Ñĥ":5063,"ĠÐ§ÐµÐ¼Ñĥ":5064,"Ð´ÑĨÐ°ÑĤÑĮ":5065,"ÑĤÐµÐ»ÑĮÐ½Ð°Ñı":5066,"ĠÐµÑģÑĤÐµ":5067,"ĠÑĢÐµÐ»Ð¸":5068,"ĠÐºÐ¾Ð»Ð»ÐµÐº":5069,"ĠÑĦÐ¾ÑĢÐ¼Ñĥ":5070,"ĠÐ²ÑĭÑģÐºÐ°":5071,"ĠÑĢÑĥÐºÐ¾Ð¹":5072,"ĠIn":5073,"ĠÑĢÐµÐ±ÐµÐ½ÐºÐ°":5074,"Ð±ÐµÑģ":5075,"ĠÑĨÐµÐ»Ð¸":5076,"ĠÑģÐµÑĤÐ¸":5077,"ÐĴÐ¾Ð¿ÑĢÐ¾Ñģ":5078,"ĠÐĳÐ¾Ð³":5079,"ÑīÐ¸Ñħ":5080,"ĠÑĦÑĢÐ°":5081,"ĠÑģÐ²ÑıÐ·Ð°Ð½":5082,"ĠÐ¿ÑĢÐµÐ´Ð»Ð°Ð³Ð°":5083,"ĠÐ½ÐµÐ²Ð¾Ð·Ð¼Ð¾Ð¶Ð½Ð¾":5084,"ĠÐļÐ¾Ð½ÐµÑĩÐ½Ð¾":5085,"ÑĤÐºÐ¾Ð¹":5086,"ost":5087,"Ð´Ð°Ðº":5088,"Ð³Ð´Ðµ":5089,"ĠÐ»Ð¸ÑĪ":5090,"Ð³Ð¾ÑģÑı":5091,"ĠÑĢÐµÐ¼Ð¾Ð½":5092,"ĠÐ¼Ð¾Ñİ":5093,"ĠÑĤÐ°ÐºÐ¸":5094,"ĠÐ¿Ð¾Ð»Ð¾Ð²Ð¸":5095,"ĠÑĤÐµÐ¼Ñĥ":5096,"ÐľÐĺ":5097,"ĠÐ´ÐµÐ»Ð°ÑİÑĤ":5098,"ĠÐ¿ÑĤÐ":5099,"ÐĴÐµÐ´ÑĮ":5100,"Ð¤Ð":5101,"ĠÐºÑĢÐµÐ¿":5102,"ĠÐ¾Ð±ÑĢÐ°ÑĤÐ½Ð¾":5103,"sp":5104,"ĠÐ¿Ð°Ð¼ÑıÑĤÐ¸":5105,"In":5106,"ĠÑĥÑĤÐ¾Ñĩ":5107,"ĠÑĥÑĢÐ¾Ð²Ð½Ðµ":5108,"ĠÑģÐ²Ð°":5109,"ĠÐ´Ð¾Ð»Ð³":5110,"Ġ197":5111,"¾ÑĪÐ»Ð¸":5112,"ode":5113,"Ð½Ð½ÑĭÐµ":5114,"Ð¿Ð¾ÑĢÑı":5115,"ÐŁÐ¾ÑĤ":5116,"ÑĤÐºÐ¾":5117,"Ð²ÐµÑĢÐ¾":5118,"ĠÐ²Ð¸Ð´Ñĥ":5119,"Ð¿ÐµÑĩÐ°ÑĤ":5120,"Ð½Ð°Ð»Ð°":5121,"Ð¼Ð¼":5122,"ĠÑĩÐµÑĤÐ²ÐµÑĢ":5123,"ĠÐ¸ÑģÐºÐ°ÑĤÑĮ":5124,"ĠÐ½Ð°ÑģÑĤÐ¾Ð»ÑĮÐºÐ¾":5125,"Ð¼Ð¸Ð¸":5126,"ÑĢÐ°Ð²Ð¸Ð»ÑģÑı":5127,"ĠÑĥÐ½Ð¸Ð²ÐµÑĢÑģÐ¸":5128,"ĠÑıÐ·ÑĭÐº":5129,"ĠÐ²ÑĭÑģÐ¾ÐºÐ":5130,"ĠÑģÑĤÐ°Ð½Ð¾Ð²Ð¸ÑĤÑģÑı":5131,"µÐ²Ð°":5132,"ÑĳÑĤÑģÑı":5133,"ĠÐ¾ÑģÐ½Ð¾Ð²Ð°Ð½Ð¸Ñİ":5134,"ype":5135,"Ð°Ð³":5136,"ĠÐ¿Ð¾Ð´ÐºÐ»Ñİ":5137,"ĠÐ±Ð°ÑĢ":5138,"ĠÑĩÐ°ÑģÑĤÐ½Ð¾ÑģÑĤÐ¸":5139,"ÑģÐ°Ð¼Ð¸":5140,"ĠÐ°ÑĤ":5141,"ĠÐºÐ¾Ð¼Ð¸Ñģ":5142,"ÑĩÐµÐ½Ð¾":5143,"ĠÐ±ÑĥÐ´ÐµÑĪÑĮ":5144,"ĠÑĤÐµÐ":5145,"ĠÐ·Ð½Ð°Ð¼ÐµÐ½Ð°ÑĤÐµÐ»ÑĮ":5146,"ĠÐ¼Ð°Ð¼Ð°":5147,"32":5148,"°Ð»Ð":5149,"ĠÐ¿Ð¾Ð·Ð²Ð¾Ð»Ð":5150,"ĠÐĶÐ¼Ð¸ÑĤ":5151,"ÐĶÑĥ":5152,"Ð²Ð¸Ð²":5153,"ÑĤÐ¸ÑĢÐ¾Ð²Ð°ÑĤÑĮ":5154,"¾ÑĢÑ":5155,"ĠÐ¼Ð½ÐµÐ½Ð¸Ñİ":5156,"ĠÑģÑĥÑīÐµÑģÑĤÐ²Ð":5157,"ĠÑģÑĩÐ¸ÑĤÐ°ÐµÑĤ":5158,"ĠÐºÐ¸ÑĤÐ°Ð¹":5159,"ĠÐ¸Ð½ÑģÑĤÑĢÑĥ":5160,"ĠÐ¿ÑĢÐ¾ÑĤÐµ":5161,"Ð´ÐµÐ½Ð¸Ð¸":5162,"ĠÐ½Ð¾ÑĩÐ¸":5163,"ĠÐ¶ÐµÐ½ÑīÐ¸Ð½Ñĭ":5164,"Ð»Ð°ÑĤÑĭ":5165,"ĠÑĥÑĢ":5166,"ĠÐ½ÐµÑģÐºÐ¾Ð»ÑĮÐºÐ¸Ñħ":5167,"ĠÐ¿ÑĢÐ¸Ð±Ð»Ð¸":5168,"ĠÐºÐ¾Ð¼Ð°Ð½Ð´Ñĭ":5169,"ÑģÐ¸Ð¼Ð°":5170,"ĠÐŁÐ¾ÑĤÐ¾Ð¼Ñĥ":5171,"Ð¼Ð¾Ð¼":5172,"ĠÐ²ÐµÑĢÐ¾ÑıÑĤÐ½Ð¾ÑģÑĤÑĮ":5173,"Ð¾Ð»ÐµÐ²":5174,"ĠÑģÐºÐ¸":5175,"µÑģÑĤÐ²":5176,"Ð½ÐµÑĤÐ°":5177,"ĠÐ¿Ð¾Ð¿ÑĭÑĤÐ°":5178,"ĠÑģÑĢÐµ":5179,"ĠÑīÐ":5180,"Ð£Ð¿ÑĢÐ¾ÑģÑĤÐ¸ÑĤÐµ":5181,"Ð¾Ð¶Ð¸ÑĤÑĮ":5182,"Ð¼ÐµÑĪÐ":5183,"Ð»Ð¾ÑģÐ":5184,"ĠÐ¿Ð¾ÐºÑĢÑĭ":5185,"ÑĢÐ¾Ð²ÐµÐ½ÑĮ":5186,"ĠÐ°Ð½Ð³Ð»Ð¸Ð¹":5187,"¾ÑĢÑĤ":5188,"ord":5189,"ÑĩÐ¸ÑĤÐ°ÑĤÑĮ":5190,"ĠÐ¸Ð½ÑĦÐ¾ÑĢÐ¼Ð°ÑĨÐ¸Ñİ":5191,"ĠÐºÐ¾Ð¼Ð¸":5192,"Ð±Ð°Ñģ":5193,"ĠÐ´ÑĢÐµÐ²":5194,"Ð¾Ð±Ð¾ÑĢÐ¾ÑĤ":5195,"ĠÐ¾ÑģÐ½Ð¾Ð²Ð½Ð¾Ð¼":5196,"ÐľÐ°":5197,"Ð»Ð¾Ð²Ð½Ð¾":5198,"ĠÐ¸Ð³ÑĢ":5199,"ÑģÐ¸ÑĤÑĮ":5200,"ÐºÐ¾Ð»":5201,"ÑħÐ¾":5202,"ĠÐ²ÑĭÐ´Ð°":5203,"Ð¶Ð½ÑĭÑħ":5204,"ĠÐ²ÐµÑĢÑħ":5205,"ĠÑĢÑĥÐºÐ°Ð¼Ð¸":5206,"ĠÑĩÐ¸ÑĤÐ°ÑĤÑĮ":5207,"ĠÑĢÐµÐ°Ðº":5208,"ĠÐ·ÐµÐ¼Ð»Ðµ":5209,"Ð»Ð°Ð´Ñĭ":5210,"Ð¶Ð´ÐµÐ½Ð¸Ðµ":5211,"ĠÐ°Ð´ÑĢÐµÑģ":5212,"set":5213,"Ð°ÑĤÐ°":5214,"ĠÐ¿Ð¾Ð»Ñı":5215,"Ġthe":5216,".)":5217,"ĠÑģÐ¾Ð¶Ð°Ð»ÐµÐ½Ð¸Ñİ":5218,"ĠÑĤÐµÐ°ÑĤ":5219,"Ð´ÐµÑĤÐµ":5220,"ĠÐ½ÐµÑĢ":5221,"55":5222,"ÑīÐ¸Ðº":5223,"Ð¾Ð¸Ð¼":5224,"ĠÐ°ÐºÐºÐ°Ñĥ":5225,"ĠÑģÐ²ÑıÐ·Ð°":5226,"Ð¿ÐµÐ½":5227,"ĠÐ¿Ð¸ÑĪÐµÑĤ":5228,"Ð§ÑĤÐ¾Ð±":5229,"¾ÑĪÐ°":5230,"ĠÐ³ÑĢÐµ":5231,"Ġfor":5232,"Ð±Ð¾ÑĢÐ°":5233,"ĠÑģÐ¾ÑģÑĤÐ°Ð²Ð»Ñı":5234,"ff":5235,"ĠÑĢÐ¾Ð»ÑĮ":5236,"Ð»ÑĥÑĪÐ":5237,"ÑĩÐµÐ½Ñĭ":5238,"ĠÑįÐºÑģÐ¿Ðµ":5239,"Ð²ÑĪÐ¸Ð¼":5240,"ĠÐ¼Ð°Ð¹":5241,"¸ÑĨÐ¸Ð¾Ð½":5242,"ĠÐ¿Ð»Ð°Ð½":5243,"ĠÐ³Ð»Ð°Ð·Ð°Ñħ":5244,"ĠÐ½Ð¾ÑĢÐ¼":5245,"Ð¾Ð¹ÑĤÐ¸":5246,"ĠÐ´Ð»Ð¸":5247,"ĠÐŁÐ¾Ð»":5248,"ĠÐ¿Ð¾Ð´Ð¿Ð¸ÑģÐ°":5249,"ĠÐ¼Ð¸Ð½Ð¸Ð¼ÑĥÐ¼":5250,"ime":5251,"ĠÐ¼ÑĥÐ¶ÑĩÐ¸Ð½Ð°":5252,"ĠÑģÑĤÐ¾Ð»Ð":5253,"ml":5254,"Ð»ÐµÐ½Ð¾":5255,"ĠÑģÐºÐ¾ÑĢÐ¾ÑģÑĤÑĮ":5256,"ĠÐ±Ð¾Ð»ÐµÐ·":5257,"ĠÐ³Ð»Ð°Ð·Ð°Ð¼Ð¸":5258,"ĠÐºÐ¾Ð½ÑĦÐ":5259,"ĠÐ·Ð°ÑĢÐ°":5260,")?":5261,"ĠÑħÐ¾ÑĤÑıÑĤ":5262,"ĠÐ²ÑĩÐµÑĢÐ°":5263,"ĠÐ¶ÐµÐ½Ð°":5264,"ĠÐ²Ð¸Ð´ÐµÑĤÑĮ":5265,"Ð½Ð¸ÑıÑħ":5266,"ĠÐ·Ð¾Ð»Ð¾ÑĤ":5267,"°ÑħÐ°":5268,"ĠÐ¿ÑıÑĤÐ¸":5269,"ĠÐ½Ð°Ð·Ð²Ð°Ð½Ð¸Ðµ":5270,"Ð»Ð°Ð²Ð°":5271,"ap":5272,"ĠÐľÐ¾Ð¶Ð½Ð¾":5273,"ĠÐķÐ²ÑĢÐ¾Ð¿":5274,"ĠÐ¼Ð°ÑĤÐµÑĢÐ¸Ð°Ð»":5275,"ĠÐļÐ¸Ðµ":5276,"ĠÐ¿ÑĢÐ¾Ð¸Ð·Ð¾ÑĪÐ»Ð¾":5277,"ĠÐ²Ð¾Ð²ÑģÐµ":5278,"ĠÑģÑĤÑĢÐ°Ñħ":5279,"ĠÑĤÐ°Ð±":5280,"ĠÐ°Ð½Ð°Ð»Ð¸":5281,"ĠÐ¡Ð¾Ð²ÐµÑĤ":5282,"ĠÐ¿ÐµÑĢÑģÐ¾Ð½Ð°":5283,"ĠÐ½Ð°ÐºÐ°":5284,"ĠÐ¾Ð±ÑıÐ·Ð°Ð½":5285,"ÑģÐ¼Ð¾ÑĤ":5286,"ÑĥÐ´Ð°Ð»ÐµÐ½Ð½ÑĭÐ¹":5287,"ĠÐ£ÐºÑĢÐ°Ð¸Ð½Ðµ":5288,"ÑĪÐºÐ°":5289,"ĠÐ·ÐµÐ¼Ð»Ð¸":5290,"ĠÐ¿ÑĢÐ¾Ð·":5291,"°ÑĨ":5292,"Ð»Ð¾Ð¶":5293,"ĠÐ¿ÑĢÐ¾Ð¿Ð":5294,"ĠÐ½ÐµÐ´Ð¾ÑģÑĤÐ°":5295,"ÐºÐ¾Ð¼Ñĥ":5296,"ĠÐĵÐµ":5297,"Ð½Ð¸Ð½Ð°":5298,"ĠÐ½ÐµÐ´Ð°Ð²Ð½Ð¾":5299,"ĠÑĢÐ°ÑģÐ¿Ð¾Ð»Ð¾Ð¶Ð":5300,"Ð°Ð¹":5301,"ÑĳÑĪÑĮ":5302,"ĠÑĥÑģÐ¸Ð»Ð¸":5303,"ĠÐ´Ð°Ð»ÑĮÐ½ÐµÐ¹":5304,"ĠÐ¼Ð°Ð¼":5305,"ĠÑĢÐ°ÑģÑĪÐ¸":5306,"Ð¾Ð³Ð¸Ðµ":5307,"ĠÑģÑĢÐ°":5308,"ĠÑĥÐ³Ð¾Ð»Ð¾Ð²":5309,"ÑĢÐ¾Ð²ÐºÐ¸":5310,"ÐºÐ¾ÑģÑĤÑĮ":5311,"ĠÑĤÑĢÐ°Ð´Ð":5312,"Ð¿Ð¸ÑĤÐ°Ð½":5313,"ĠÑĢÐµÐ·ÑĥÐ»ÑĮÑĤÐ°Ñ":5314,"ĠÑĢÐµÐ·ÑĥÐ»ÑĮÑĤÐ°ÑĤ":5315,"ÑĩÐ°Ñİ":5316,"ĠÑĦÐ¾ÑĤÐ¾Ð³ÑĢÐ°ÑĦÐ":5317,"Ð±Ð¾Ð¼":5318,"ĠÑģÐ¸Ð½":5319,"ĠÐ½Ð¾Ð²Ð¾Ð¹":5320,"µÐ½Ð½Ð°Ñı":5321,"Ð¿Ð»Ð¸":5322,"ĠÐ¼Ð¾Ð±Ð":5323,"ĠÐ´Ð¾Ð¿Ð¾Ð»Ð½Ð¸ÑĤÐµÐ»ÑĮ":5324,"Ð´Ð¾Ð¹":5325,"Ð¾ÑħÑĢÐ°":5326,"ÐŀÐ½Ð¸":5327,"ĠÐ¶Ð´Ð°ÑĤÑĮ":5328,"ÐºÐ¾ÑĤÐ¾ÑĢÑĭ":5329,"ĠÑĦÐµÐ´Ðµ":5330,"ĠÐ¼ÐµÑĤÐ°Ð»":5331,"ĠÐ½Ð°Ð¿Ð¸ÑģÐ°ÑĤÑĮ":5332,"ĠÐ²Ð¿ÐµÑĢÐ²ÑĭÐµ":5333,"90":5334,"ĠÐĴÐµÐ»Ð¸":5335,"Ð»ÑıÐµÑĤÑģÑı":5336,"ĠÐ½ÐµÐ½Ð°Ð²Ð¸":5337,"ĠÑĥÐ¿ÑĢÐ°Ð²Ð»Ñı":5338,"Ð±Ð»Ð¸Ð¾ÑĤÐµ":5339,"ĠÑĤÐµÐ¼Ð¿ÐµÑĢÐ°":5340,"ĠÐĿÐµÑģ":5341,"Ð¾Ð»Ð³Ð¾":5342,"ĠÐ·ÐµÑĢ":5343,".\"":5344,"Ð¿ÐµÐ½Ð¸":5345,"ĠÐ¾ÑģÐºÐ¾":5346,"ĠÐ¿Ð¸ÐºÐ°Ð±Ñĥ":5347,"ĠÐ¿Ð¾ÐºÑĥÐ¿Ð°":5348,"ĠÐ¾Ð±Ð½Ð°ÑĢÑĥ":5349,"ĠÑĤÐ²Ð¾Ð¸":5350,"ĠÐ·Ð½Ð°ÐµÑĤÐµ":5351,"gle":5352,"();":5353,"ĠÐ±ÑĥÐºÐ²Ñĭ":5354,"Ð²Ð°ÑĢÐ¸":5355,"ĠÐ¿Ð¾ÑħÐ":5356,"Ð»Ð¸Ð°":5357,"ĠÐ¾ÐºÐ°Ð·Ð°Ð»ÑģÑı":5358,"Ð½Ð³Ðµ":5359,"ĠÐ¾ÐºÐ":5360,"ĠÑĥÐ·Ð½Ð°ÑĤÑĮ":5361,"ĠÐ´ÑĥÐ¼Ð°ÑĤÑĮ":5362,"ĠÐ½ÐµÐ´ÐµÐ»Ð¸":5363,"ĠÐ±ÑĭÑģÑĤÑĢÐµ":5364,"Ð½ÑĮÐ":5365,"ĠÑģÐ°Ð¼ÑĭÐµ":5366,"Ð·Ð¸ÑĤÑĮ":5367,"ĠÐ¾Ð±ÑĬÐµÐº":5368,"Ð½ÐµÐ½Ð¸Ñİ":5369,"ÑĢÐ¾Ð½Ð¸":5370,"ĠÐ²Ð°ÑĪÐ¸":5371,"ĠÐĿÐ°Ð¿ÑĢÐ¸Ð¼ÐµÑĢ":5372,"ĠÐ¿Ð¾ÑģÑĤÑĢÐ°":5373,"ĊĠ":5374,"ĠÑģÐ¾ÑģÑĤÐ¾ÑıÐ½Ð¸Ð¸":5375,"Ð²Ð°ÐµÑĪÑĮ":5376,"ĠÑĢÐ°Ð·ÑĢÑĥ":5377,"Ð»ÑĥÑİ":5378,"ĠÐºÐ°Ð·Ð°Ð»Ð¾ÑģÑĮ":5379,"ÐºÐ°ÑİÑĤ":5380,"ĠÐĺÐ²Ð°Ð½":5381,"ĠÐ¢Ð°ÐºÐ¶Ðµ":5382,"ĠÑĤÐ¸ÑħÐ¾":5383,"ÐĴÐ¾":5384,"ĠÐ´Ð²Ð¸Ð¶ÐµÐ½Ð¸Ñı":5385,"ĠÐ¿ÑĢÐ¾ÐµÐºÑĤÐ°":5386,"ĠÑĢÐ°ÑģÑģÐ¼Ð°ÑĤÑĢÐ¸":5387,"yout":5388,"ÑĤÑĭÐ¼":5389,"ĠÑĥÑģÐ»Ð¾Ð²Ð¸Ð¸":5390,"ĠÑģÑĢÐµÐ´ÑģÑĤÐ²Ð°":5391,"Ġ</":5392,"ĠÑĢÐµÐºÐ¸":5393,"oc":5394,"Ð´Ð¶ÐµÑĤ":5395,"¸Ð¾":5396,"ĠÑĥÑĤÑĢÐ¾Ð¼":5397,"Ð²ÐµÐ¹":5398,"Ð½Ð¸ÑĤÑģÑı":5399,"ĠÐ¼ÑıÐ³":5400,"ĠĠĠĠĠĠĠĠĠĠĠĠĠĠĠĠ":5401,"ĠÐ¡ÐµÑĢÐ³ÐµÐ¹":5402,"ĠÐ¸Ð½ÑĦ":5403,"ĠÐ¿Ð¾ÑģÑĤÐ°Ð²":5404,"ĠÐºÑĢÐ°ÑģÐ":5405,"ĠÐ¾Ð´Ð½":5406,"ĠÐ¿ÑĢÐµÐ´ÑĥÐ¿ÑĢÐµ":5407,"ĠÑĢÐ°Ð±Ð¾ÑĤÐ°ÑİÑĤ":5408,"ĠÐ´Ð¾ÑĢÐ¾Ð³Ð¸":5409,"ĠÐ¾ÑĤÐ½Ð¾ÑĪÐµÐ½Ð¸Ð¸":5410,"ĠÐ±Ð°ÑĤÐ°":5411,"ĤÑĢÐ¸":5412,"ÑĤÑĢÐ¸":5413,"Ð¾Ð´Ð¾ÑĢ":5414,"ĠÐ½Ð°ÑĪÐµÐ³Ð¾":5415,"īÑĥ":5416,"Ð¶ÐµÐ½Ð¸ÐµÐ¼":5417,"able":5418,"ight":5419,"ĠÐ¿ÑĢÐ¾Ð¿Ð°":5420,"ĠÑĪÐ°Ð½":5421,"68":5422,"Ð´Ð°Ð¼":5423,"sh":5424,"ĠÑĥÐ¿Ð°":5425,"Ð´ÑĢÑĥÐ³":5426,"ÑİÑīÐ¸Ðµ":5427,"ĠÐ¸Ð½Ð²ÐµÑģ":5428,"48":5429,"ĠÐ¼ÑĭÑģÐ»ÑĮ":5430,"âĢĿ":5431,"ĠÐĵÐ´Ðµ":5432,"Ð»Ð¾Ð¼ÐµÑĤ":5433,"ĠÐ¿Ð¾Ð²ÐµÑĢÑħ":5434,"ÐµÑĤÐµÑģÑĮ":5435,"ÑĤÐµÐ³Ð¾":5436,"Ġ75":5437,"ĠÑĩÑĳÐ¼":5438,"ĠÐ´Ð¸ÑģÐº":5439,"ĠÑĢÐ°Ð´":5440,"Ð³ÐµÑĢ":5441,"ĠÐ´Ð¾Ð±Ð°Ð²Ð¸Ð»":5442,"Ð»Ð¾ÑģÑĤÑĮ":5443,"ĊĠĠĠĠĠĠĠĠĠ":5444,"ĠÑģÐ¾Ð³Ð»Ð°ÑģÐ":5445,"for":5446,"ĠÐ¿Ð¸ÑģÐ°Ð»":5447,"con":5448,"ĠÐ¿Ð°Ð¼ÑıÑĤÑĮ":5449,"Ð´Ð°Ð»Ð°":5450,"ĠÐ¼Ð¸Ð¼Ð¾":5451,"°Ð´ÐµÐº":5452,"¸Ð°Ð»":5453,"Ð¾ÐµÐ¼Ñĥ":5454,"Ð½Ð¾Ð²Ð¸":5455,"ĠÐ²ÑĭÐ¸Ð³":5456,"ĠÐ¿Ð°ÑģÑģÐ°Ð¶Ð¸":5457,"ĠÑģÐ¼ÐµÑĢÑĤÑĮ":5458,"ĠÐ²ÐµÐ·Ð´Ðµ":5459,"ÑĥÐ»":5460,"ĠÐ±Ð¾Ð»ÑĮÑĪÐ¸Ð½ÑģÑĤÐ²Ð¾":5461,"Ð°Ð¼":5462,"qu":5463,"ĠÐ¶ÐµÑģÑĤ":5464,"ĠÐ¿ÑĢÐ¾Ð¶Ð¸":5465,"ĠÐºÐ½Ñı":5466,"ĠÑģÐ¿Ñĥ":5467,"ĠÐ³ÑĢÐ":5468,"ĠÐ¿Ð°ÑĢÐµÐ½ÑĮ":5469,"ĠÐ²Ð·ÑĢÐ¾Ñģ":5470,"ĠÐ¸ÑģÑĤÐ¾ÑĢÐ¸":5471,"ĠÐ¿Ð¾Ð»Ð¸ÑĤÐ¸":5472,"ĠÑĢÐ°ÑģÑģÐºÐ°Ð·Ð°Ð»":5473,"ÑĩÐ¸Ð¼":5474,"ĠÐ´ÐµÑĢÐµ":5475,"ĠÐ¿ÑĢÐ¾Ð¸Ð·Ð²Ð¾Ð´Ð¸":5476,"Ð¾Ð²Ð°ÑĤ":5477,"ĠÑĢÐ°Ð·Ð³Ð¾Ð²Ð¾ÑĢ":5478,"Ð´ÐºÐ¸":5479,"Ð»ÑĮÐµ":5480,"ĠÐ¿Ð¾Ð¿ÑĥÐ»ÑıÑĢ":5481,"ĠÑĤÐµÑĢÑĢÐ¾":5482,"Ð¾Ð»ÐµÐ½":5483,"ĠÐ½ÐµÐ¸Ð·Ð²ÐµÑģÑĤ":5484,"ÑĥÑģÐ°":5485,"ĠK":5486,"ÑĥÑĤÑģÑı":5487,"°ÐµÑĤÑģÑı":5488,"Ð½Ð¾Ð²ÑĢÐµÐ¼ÐµÐ½Ð½Ð¾":5489,"ĠÑĥÐ´Ð¾Ð²Ð¾Ð»ÑĮ":5490,"indow":5491,"ĠÐ¼Ð½Ð¾Ð¶ÐµÑģÑĤÐ²Ð":5492,"ĠÐ¾ÑģÑĤÐ°Ð»Ð¾ÑģÑĮ":5493,"Ð¶Ð¸ÑĤÑĮ":5494,"ÑĥÑģÑĤÐ¸Ð»":5495,"ĠÑģÐ¸Ð»Ñĥ":5496,"ĠÑģÐ»ÐµÐ´Ð¾Ð²Ð°":5497,"lf":5498,"ĠÐ¿ÑĢÐ¾Ð³ÑĢÐ°Ð¼Ð¼Ð¸":5499,"ĠÐ¾ÑĤÐ´":5500,"ÑĢÐ°Ð¹":5501,"Ð½Ð°ÑİÑĤ":5502,"ĠÐ½Ð¸ÐºÐ¾Ð³Ð¾":5503,"ĠÑĢÐ°Ð·ÑĢÑı":5504,"ĠÑĥÐ´Ð°Ð»ÐµÐ½":5505,"Ð¡Ð°Ð¼":5506,"ĠÐ·Ð´Ð¾ÑĢ":5507,"ĠÐ²Ð¾ÑģÐ¿ÑĢÐ¸":5508,"ĠÐ¿Ð¾ÑģÐ¼Ð¾ÑĤÑĢÐµÐ»":5509,"ĠÐ³Ð°Ð·Ð":5510,"ĠÐ³ÑĥÐ±ÐµÑĢ":5511,"ĠÑģÐ¾ÐºÑĢÐ°":5512,"ĠÐ³Ð°Ð·":5513,"Ġand":5514,"Ġ66":5515,"ĠTrue":5516,"ĠÐ¾ÑħÑĢÐ°":5517,"ĠÐºÐ¾ÑĪ":5518,"ĠÐºÐ¾Ð»Ð»Ðµ":5519,"ĠÑģÐ¾Ð¾Ð±ÑīÐ¸Ð»Ð¸":5520,"µÐ¶Ðµ":5521,"ĠÐ²Ð»Ð°ÑģÑĤÑĮ":5522,"ĠÐ¿Ð°ÑĢÑĤÐ¸Ð¸":5523,"ÐŁÑĢ":5524,"ĠÑįÑĦÑĦÐµÐºÑĤÐ¸Ð²":5525,"ĠÐ¿ÑĢÐµÐ´Ð¿":5526,"ĠÑĢÐ¾Ð»Ð¸":5527,"ĠÑģÐ¼Ð¾Ð¶ÐµÑĤ":5528,"ĤÐ¾Ð½":5529,"ÑĤÐ¾Ð½":5530,"one":5531,"Ð¾Ð²Ð°Ð»ÑģÑı":5532,"ĠÐ°Ð²ÑĤÐ¾Ð¼Ð¾Ð±Ð¸":5533,"ĠÐ¿ÑĢÐ¾ÑĦÐµÑģÑģÐ¸":5534,"ĠÐ¿Ð¸ÑĤÐ°":5535,"ĠÐ¸ÑģÑĩÐµÐ·":5536,"Ð¾Ð½Ð´":5537,"ÐºÐ°ÐµÑĤ":5538,"Ð¼ÐµÐ½ÐµÐ¼":5539,"Ġ67":5540,"ĠÐ²Ð¿ÐµÑĢÐµÐ´":5541,"ĠÐ¿Ð¾ÑħÐ¾Ð¶Ðµ":5542,"ĠÑĥÐ²Ð¸Ð´ÐµÑĤÑĮ":5543,"ÑģÐµÐ»":5544,"ĠÐ½ÐµÐ¾Ð¶Ð¸Ð´Ð°":5545,"Ð´Ð°Ñı":5546,"ĠÐ§ÐµÑĢÐµÐ·":5547,"ÐľÐµ":5548,"ĠÐ°Ð³":5549,"ĠÐºÑĢÐµÐ´Ð¸ÑĤ":5550,"St":5551,"ĠÑĤÑĭÑģÑıÑĩÐ¸":5552,"ĠÐ¿ÑĢÐ¾ÑĨÐµÑģÑģ":5553,"Ð´Ð¸Ð»Ð¸":5554,"ĠÑģÐ¾ÑģÑĤÐ°Ð²Ðµ":5555,"ĠÐ¿ÑĢÐ°Ð²Ð¸ÑĤÐµÐ»ÑĮÑģÑĤÐ²Ð°":5556,"ÐµÐ¶Ðµ":5557,"Ð»Ð¸ÑĤÑĮÑģÑı":5558,"Ð½ÑıÐµÑĤ":5559,"ÐĴÐ¾Ð·":5560,"ĠÐ¼Ð°ÑĪÐ¸Ð½Ð°":5561,"Ð¾Ð»Ð¾Ð³":5562,"ĠÐ°Ð²Ð¸Ð":5563,"ĠÐĳÐµÐ·":5564,"Ð»Ð¾Ð¿":5565,"ĠÐ´Ð½Ð¸":5566,"ÑĢÐµÑĤÐ°":5567,"ĠÐ¼Ð°ÑĢÑĪ":5568,"ĠÑģÐºÐ°Ð·Ð°Ð»Ð¸":5569,"ÑĥÐ»ÑĮ":5570,"ÑĤÐµÐº":5571,"ĠÐºÐ¾Ð¼Ð½Ð°":5572,"°ÑĳÑ":5573,"ÐŁÐ¾ÑĩÐµÐ¼Ñĥ":5574,"ĠÑĢÐµÑĪÐ¸Ð»Ð¸":5575,"ÑĩÐ¸ÑĤÐ°Ð»":5576,"ĠÐºÐ¸Ð²":5577,"ĠÐ½Ð°Ð³ÑĢÐ°":5578,"°Ð½ÑĮ":5579,"Ð»ÐµÑĤÐ°":5580,"atch":5581,"Ð³Ð°ÑİÑĤ":5582,"Ð¿Ð¾ÑĢÑĤÐ°":5583,"ĠÑģÐ´ÐµÐ»Ð°Ð»Ð¸":5584,"ÑĩÐµÑģÐºÑĥÑİ":5585,"ĠÐŀÑģÑĤÐ°":5586,"ĠÐ¡Ð¿Ð°ÑģÐ¸Ð±Ð¾":5587,"Ð¸ÑĤÑĮ":5588,"ator":5589,"ĠÑħÐ»Ðµ":5590,"ĠÐ·Ð°Ð²Ðµ":5591,"ĠÑĦÑĢÐ¾Ð½":5592,"Ġ2016":5593,"ĠÐ±ÑĥÑĤ":5594,"ÐĳÐµÐ·":5595,"ĠÑıÐ²Ð»ÑıÑİÑĤÑģÑı":5596,"ĠÐ¼Ð¾Ð¶ÐµÐ¼":5597,"ĠÐ°Ð±ÑģÐ¾Ð»ÑİÑĤÐ½Ð¾":5598,"ĠÐ¿Ð¾Ð·Ð²Ð¾Ð»ÑıÐµÑĤ":5599,"ĠÑģÐµÐ¼ÐµÐ¹":5600,"ĠÑĥÑĢÐ¾Ð²ÐµÐ½ÑĮ":5601,"ÐºÐ°Ð´Ðµ":5602,"ĠÐ¿ÑĢÐ¾ÑģÑĤÑĭÐµ":5603,"Ð´Ð¶Ðµ":5604,"ĠÑĥÐ±":5605,"Ð»ÐµÑĨ":5606,"ĠÐµÐ¶Ðµ":5607,"Ð¿Ð»":5608,"ĠÑģÐ¾ÑģÑĤÐ°Ð²Ð»ÑıÐµÑĤ":5609,"ÐŁÑĢÐ¾":5610,"Ð¼ÑĭÑĪ":5611,"ĠÐŁÑĢÐ¸ÑĩÐ¸Ð½Ð°":5612,"ĠÐ¿Ð¾Ð»ÑĮÐ·Ñĥ":5613,"ÑĢÐ¾ÑĦÐ":5614,"ĠÐ·ÐµÐ¼Ð»Ñİ":5615,"Ð°Ð²Ð°":5616,"ĠÑħÐ¾ÑĤÐ¸ÑĤÐµ":5617,"ĠÐºÐ½Ð¾Ð¿":5618,"ĠÐ½Ð¾Ð³":5619,"ĠÐ´Ð°Ð»":5620,"ĠÑĤÐµÑĢÑı":5621,"ult":5622,"ÑģÑĦÐ":5623,"ĠÑĢÐ¾Ð´ÑģÑĤÐ²ÐµÐ½":5624,"ĠÐŁÐµ":5625,"ĠÐ½Ð°ÑĪÐµÐ»":5626,"ĠÐ±ÐµÑĢ":5627,"ÐºÐ¾Ð³":5628,"Ð·ÑĭÐ²Ð°ÑİÑĤ":5629,"ĠÐ´Ð¾ÐºÑĥÐ¼ÐµÐ½ÑĤÐ°":5630,"ÑıÑĤÐ¾Ð¹":5631,"ÑģÑĤÐ²Ð¾Ð²Ð°Ð»":5632,"Ð½Ð½ÑĭÑħ":5633,"ĠÑĥÐ²":5634,"Ġ--":5635,"ĠÐľÐ°Ð¹":5636,"Ð´ÑĥÑĪ":5637,"Ð¼ÑĮÐµÑĢ":5638,"Ð»ÑİÐ±":5639,"ĠÐ¿ÑĢÐ¾ÐºÑĥ":5640,"ĠÐ·Ð°Ð²Ð¸ÑģÐ¸":5641,"ĠÐ¿ÑĢÐ¾Ð³ÑĢÐ°Ð¼Ð¼Ñĭ":5642,"ÑĬÑı":5643,"ĠÐ¿ÑĢÐµÐ´ÑģÐµÐ´Ð°":5644,"ĠÐ¿Ð¾Ð´ÑĥÐ¼Ð°":5645,"ĠÐ·Ð°Ð¿Ð°Ð´":5646,"65":5647,"ÑģÑĨÐ":5648,"ĠÐºÐ½Ð¸Ð³Ð¸":5649,"Ġ68":5650,"ĠÐ²ÐºÑĥÑģ":5651,"ĠÐ¸Ð·Ð²Ð¸":5652,"ĠÐ¿ÐµÑĢÐ²Ð°Ñı":5653,"ĠÑģÑĥÐ´Ð°":5654,"**(-":5655,"ĠÐ²ÐµÑĤÐµÑĢ":5656,"ĠÐºÑĥÑħ":5657,"ĠÑģÐ¼Ð¾ÑĤÑĢÐµÐ»":5658,"Ð´Ð¸Ñı":5659,"ĠÐºÐ°ÑĤÐ°":5660,"ĠÐ¸ÑģÑĤÐ¾ÑĢÐ¸Ñİ":5661,"ĠÐ¿Ð»ÑİÑģ":5662,"Ð¿ÐºÐ¸":5663,"ĠÐ¸Ð·Ð¼ÐµÐ½Ð¸":5664,"ÑĤÐµÐ»Ñİ":5665,"Ð¼Ð°ÑİÑĤ":5666,"Ð»Ð¸Ð»":5667,"ĠÐ½ÐµÐ¿Ð»Ð":5668,"µÐ½Ð½Ð¾Ðµ":5669,"Ð¾Ð¶Ð¸Ð»":5670,"ÑīÑĳ":5671,"ĠFalse":5672,"ĠÐºÐ¾Ð½ÑĨÐ":5673,"ace":5674,"ĠÐ½Ð°Ð¾Ð±Ð¾ÑĢÐ¾ÑĤ":5675,"ĠÐºÐ¸Ð»Ð¾Ð¼ÐµÑĤ":5676,"turn":5677,"ĠÐ¿Ð¾Ð´Ð°ÑĢ":5678,"ÑģÐ»ÑĥÐ¶Ð¸":5679,"ĠÑĨÐ¸":5680,"ĠÐ¿Ð¾Ð´Ð¾Ð·ÑĢÐµ":5681,"--------":5682,"ĠÐºÐ¾Ð½ÑģÑĤÑĢÑĥÐº":5683,"Ð¶ÐºÐ¸":5684,"ĠÑģÐ¿Ð¸ÑģÐ¾Ðº":5685,"ag":5686,"67":5687,"ĠÑģÑĥÐ´Ðµ":5688,"ĠÑģÐ°Ð¹Ñ":5689,"ĠÑģÐ°Ð¹ÑĤ":5690,"ÑĢÐ¸Ð»Ð¸":5691,"ĠÐ¿ÐµÑĢÐ²Ð¾Ð¼":5692,"ĠÐºÐ°ÑĤÐµÐ³Ð¾":5693,"ĠÐºÐ»Ðµ":5694,"ĠÐ²ÑĭÐ²Ð¾Ð´":5695,"ĠÑģÑĤÐ¾Ð»ÑĮ":5696,"ÑįÐ½":5697,"ĠÑģÑĭÐ½":5698,"Ð³Ð°ÐµÑĤ":5699,"ĠÐµÐ´Ð²Ð°":5700,"Ġhttps":5701,"ĠÐ¶ÐµÐ½ÑīÐ¸Ð½":5702,"ĠÑģÑĥÑīÐµÑģÑĤÐ²ÑĥÐµÑĤ":5703,"ĠÑģÐ¸Ð³":5704,"ĠÐ½Ð°Ð·Ð²Ð°":5705,"ÑĤÑĥÑĢÑĥ":5706,"ĠÐ¾ÑĤÑĨÐ°":5707,"ĠÐ·Ð°Ð²Ð¸ÑģÐ¸ÑĤ":5708,"ĠÐ²ÑģÐµÐ¼Ð¸":5709,"ĠÐ±Ð¸Ð±Ð»Ð¸Ð¾ÑĤÐµ":5710,"ĠÐ´ÑĥÑĪÑĥ":5711,"ĠÐľÐ¾Ð»":5712,"Ð¾Ð´Ð¸Ð»Ð°":5713,"ĠÐ¾ÐºÐ°Ð·Ð°Ð»Ð¾ÑģÑĮ":5714,"Ð¿Ð¾Ð»Ð¾Ð¶Ðµ":5715,"ĠÐĿÐ°Ð¹Ð´Ð¸ÑĤÐµ":5716,"ÐļÐ¾Ð¼Ð¼ÐµÐ½ÑĤÐ°ÑĢÐ¸Ð¹":5717,"ĠÐ·Ð½Ð°ÑİÑĤ":5718,"ĠÐ¿Ð¾ÑĩÑĥÐ²":5719,"ÑĢÐµÐ½Ð°":5720,"ĠÑħÑĥÐ¹":5721,"ĠÐ²ÑĭÑģÑĤÑĥÐ¿Ð":5722,"ĠÑģÑĤÐ¾ÑıÐ»":5723,"ĠÐ½ÐµÐ·Ð°Ð²Ð¸":5724,"Ð³Ð¸Ð¼Ð¸":5725,"ĠÐ·Ð°ÐºÐ°Ð·":5726,"ÑĢÐ¸ÑĨÐ°":5727,"ĠÐ°Ð²Ð°":5728,"ĠÐ¾ÑģÑĥÑīÐµÑģÑĤÐ²":5729,"ĠÐ½Ð°Ð»Ð¾Ð³":5730,"Ġ195":5731,"eb":5732,"ft":5733,"ĠÑģÐ¾Ð½":5734,"ĠÐºÐ°Ð½Ð´Ð¸":5735,"Ġ63":5736,"ĠÐ§Ñĥ":5737,"Ð½ÐºÑ":5738,"ĠÐ¾ÑĤÐ´Ð°":5739,"ĠÐ²ÐµÑĢÑģÐ¸Ð¸":5740,"ÑĢÐ°Ð´":5741,"Ð³Ð¾ÑĢ":5742,"ĠÑģÐµÐ²ÐµÑĢ":5743,"ĠÑģÑĤÐ¸ÑħÐ":5744,"Ð½ÐºÑĤ":5745,"ÑħÐ¾Ð´ÑıÑĤ":5746,"ÐĴÐĶ":5747,"ĠÐ¿Ð¾ÑģÐ»ÐµÐ´Ð¾Ð²Ð°ÑĤÐµÐ»ÑĮÐ½Ð¾ÑģÑĤÐ¸":5748,"ĠÐ¿ÑĢÐµÐ´Ð¼ÐµÑĤ":5749,"ĠÐŀÑĩÐµÐ½ÑĮ":5750,"Ð§ÑĤÐ¾Ð±Ñĭ":5751,"ĠÑĥÑģÑĤÑĢÐ¾Ð":5752,"ĠÐ¿ÑĮÑı":5753,"ĠÑĤÑĢÐµÑĤÑĮ":5754,"ĠÐ¾Ð¿Ð»Ð°":5755,"ĠÐ±ÐµÑģÑģ":5756,"ĠÑĥÑģÐ»Ð¾Ð²Ð¸ÑıÑħ":5757,"ĠÑģÑĢÐµÐ´ÑģÑĤÐ²":5758,"ĠÐ²Ð¿ÐµÑĩÐ°ÑĤ":5759,"Ð½Ð½Ð¾Ð¹":5760,"ĠÐĴÐ¾Ñģ":5761,"Ð²Ð»ÑıÑĤÑĮ":5762,"ĠÐ¼Ð¸Ð»Ð»Ð¸Ð¾Ð½Ð¾Ð²":5763,"ĠÑģÐ²ÐµÑĤÐµ":5764,"ĠÐĲÐ»":5765,"ĠÐ·Ð°Ð¿ÑĢÐ¾Ñģ":5766,"ĠÐºÐ°ÐºÐ¾Ð¼":5767,"ĠÐĵÐ»Ð°Ð²":5768,"ĠÐ»ÑİÐ±Ð¾Ð¼":5769,"ĠÐ¿Ð¾Ð¼Ð¾Ð³Ð":5770,"ĠÐ²ÑĭÐ²":5771,"ĠÐ·Ð°ÑħÐ":5772,"ĠÐ²Ð¾Ð·ÑĢÐ°ÑģÑĤÐ°":5773,"ĠÐºÐ»Ð°ÑģÑģ":5774,"Ð»ÐµÐ²":5775,"ĠÑģÐ¿ÐµÑĨ":5776,"44":5777,"°Ð´ÐµÐºÐ²Ð°ÑĤ":5778,"ĠÑĢÐ°Ð·ÑĢÐ°Ð±Ð¾ÑĤ":5779,"ĠÐ½Ð°Ð¿Ð¸ÑģÐ°Ð½Ð¾":5780,"ĠÑģÐ½ÐµÐ³":5781,"ĠÐ°ÑĢÑħÐ":5782,"Ð½Ð¾Ð²Ð¸ÑĤÑĮ":5783,"ĠÑĢÐ¾Ð¶":5784,"ÑĤÐ²Ð¾ÑĢ":5785,"ĠÑĥÑĢÐ¾Ð²Ð½Ñı":5786,"ĠÑģÐ²Ð¾ÐµÐ¼Ñĥ":5787,"Ð¶Ð´ÑĭÐ¹":5788,"ĠÑĩÐ°ÑīÐµ":5789,"ÐĽÑĥ":5790,":)":5791,"ĠÑĢÐµÐºÐ¾Ð¼Ðµ":5792,"ĠÑĤÐ²Ð¾ÑĢ":5793,"ĠÐĹÐ´ÐµÑģÑĮ":5794,"ÑĢÐ°Ð²Ð¸ÑĤÑĮ":5795,"Ð»ÑĥÑĩ":5796,"ĠÐ¸Ð¼ÐµÐ»":5797,"ÑĤÐ¾ÑĢÐ¸Ñı":5798,"ĠÐ¼Ð¾Ð»ÑĩÐ°":5799,"Ð»ÐµÐºÑĤ":5800,"ĠÐ¿Ð¾Ð´ÑĢÑĥ":5801,"ÐºÑĥÐ´Ð°":5802,"ĠÐ²ÐµÑĩÐµÑĢÐ¾Ð¼":5803,"ĠÐ¿ÑĢÐ¸ÑĪÐµÐ»":5804,"ĠÐºÐ°Ð¶Ð´Ð¾Ð¹":5805,"ĠÑĪÐºÐ¾Ð»Ðµ":5806,"ĠÐºÐ¸Ð½Ð¾":5807,"ĠÑģÐ°Ð¼Ð¾Ñģ":5808,"ĠÐĿÐĲ":5809,"Ð½ÐºÐ¾Ð²":5810,"ĠÐ¿Ð¾ÑĤÑĢÐµ":5811,"ĠÐ¼Ð¸Ð³":5812,"ÑĤÐµÐ»ÑĮÑģÑĤÐ²":5813,"Ġth":5814,"ĠÑģÑĩÐ°ÑģÑĤÑĮÐ":5815,"ÑĢÑĭÑħ":5816,"ÑĢÐ¸ÑģÑĤ":5817,"Ð¸Ð½ÑĤÐµÑĢÐµÑģ":5818,"ĠÑĤÐµÐ»ÐµÐ²Ð¸":5819,"ĠÐ²Ð¾Ð·Ð²ÑĢÐ°ÑīÐµÐ½Ð¸Ñı":5820,"ĠÐ¿Ð¾ÑħÐ¾Ð¶Ð":5821,"ĠÑģÑĩÐ°ÑģÑĤÑĮÐµ":5822,"Ð´Ð°Ñİ":5823,"Ð´Ð°Ñħ":5824,"ĠÐ¿Ð°ÑĨÐ":5825,"ĠÐ³Ð°ÑĢÐ°Ð½":5826,"ĠÐºÐ¾ÑĢÐ¿":5827,"ĠÐ½Ð°ÑģÐºÐ¾Ð»ÑĮÐºÐ¾":5828,"ĠÐ¾Ð¿ÑĥÐ±Ð»Ð¸":5829,"ĠÑģÑĤÑĭ":5830,"ÐŁÐµÑĢ":5831,"Ġcon":5832,"ĠÑĢÐ¾Ð²":5833,"ĠÐ¼Ð°Ð³Ð°Ð·Ð¸Ð½":5834,"ĠÐ¸Ð´ÐµÐ":5835,"ĠÐĴÐ¸Ðº":5836,"ĠÐ»Ð¸ÑĤÐµÑĢÐ°":5837,"ĠÑģÑĤÑĢÐ¾":5838,"Ð½ÑĥÐ²ÑĪÐ¸ÑģÑĮ":5839,"ĠÐŀÐŀ":5840,"ov":5841,"ĠÐ¾Ð±Ð¾ÑĢÑĥÐ´":5842,"ĠÐ³Ð¾Ð´Ð°Ñħ":5843,"ĠÐĲÐ»ÑĮ":5844,"ĠÐ±Ð¾Ðº":5845,"ĠÐ±Ð¾Ð»ÑĮÑĪÐ°Ñı":5846,"Ġ62":5847,"ĠÐ¿ÐµÑĢÐ²ÑĭÐ¼":5848,"ÑĤÐ¸Ð»Ð¾":5849,"ÐĿÐŀ":5850,"Ð´ÑĮÐ¼Ð¸":5851,"ĠÐ¶Ñĥ":5852,"ĠÑĪÐºÐ¾Ð»ÑĮ":5853,"Ð¼ÐµÐ´":5854,"¾ÑİÐ·Ð°":5855,"ĠÑĤÐµÐ»Ð°":5856,"ĠÐ¿Ð¾Ð½Ð°":5857,"Ð¾Ð´Ð¸Ð»Ð¾ÑģÑĮ":5858,"ĠÐ¿ÑĢÐµÐ´Ñĭ":5859,"ĠÑģÑĥÑĤÐ¸":5860,"Ð½ÑıÐºÐ°":5861,"ĠÐ½Ð¾Ð¶":5862,"Ð¿Ð¸Ð»Ð°":5863,"ak":5864,"°Ð³Ð¸":5865,"ĠâĢľ":5866,"ÑģÑĪ":5867,"ÑģÑĤÐ²Ð¸ÐµÐ¼":5868,"ÑĩÐºÐ¾Ð¹":5869,"Ð»Ð¾Ðµ":5870,"ĠÐ²ÑĭÐ½Ñĥ":5871,"ĠÑĤÐµÐºÑģÑĤ":5872,"ĠÐŁÐ¸":5873,"ĠÐ¼ÐµÐ´Ð»ÐµÐ½Ð½Ð¾":5874,"ĠÐºÐ¾ÑĤÐ¾ÑĢÐ¾Ð¼Ñĥ":5875,"ÑĥÑİÑĤÑģÑı":5876,"Ġ;":5877,"ĠÐ´Ð¾Ð³Ð¾Ð²Ð¾":5878,"ĠÐŁÑĢÐ°Ð²Ð´Ð°":5879,"Ġ61":5880,"ÑĢÐ¿Ðµ":5881,"ÑĢÐ¸ÑĦ":5882,"ÐºÐ»Ð¸":5883,"ava":5884,"Ð·Ð°Ð¹":5885,"ÑģÑĤÐ²ÐµÐ½Ð½ÑĭÐ¹":5886,"Ð¶Ð½ÑĭÐµ":5887,"ĠÐ»Ð¾Ð¶":5888,"Ġ69":5889,"ĠÐ·Ð°Ð¼ÐµÑĩÐ°":5890,"ĠÐ½Ð¸ÐºÐ°ÐºÐ¾Ð³Ð¾":5891,"ĠÐŀÐ´Ð¸Ð½":5892,"ĠÐ²Ð¾Ð´Ñĥ":5893,"!..":5894,"ÑĩÐ°ÑİÑĤÑģÑı":5895,"Ð³Ð¸Ð¸":5896,"ĠÐ½Ð¸ÐºÐ¾Ð¼Ñĥ":5897,"ĠÐ´Ð¾Ð²Ðµ":5898,"Ð²Ð¾ÑģÑĤ":5899,"Ð²ÑĪÐ¸Ð¹ÑģÑı":5900,"Ð¶Ð¸Ð»":5901,"Ð¾Ð¸Ð½":5902,"ÑĤÐ¾ÑĢÐ¾Ðµ":5903,"ĠÐ²Ð½Ð¸Ð·":5904,"ip":5905,"ÐµÑĢ":5906,"ÑĢÐ³Ðµ":5907,"ĠÐĺÐ¼":5908,"Ð¾Ð´Ð¾Ð¼":5909,"ĠÐĿÐ°Ð´Ð¾":5910,"ĠÑģÐ°Ð¼Ð¾Ð»ÐµÑĤ":5911,"Ð´Ð¾Ðº":5912,"ĠÑįÐ¿Ð":5913,"ĠÐ¿Ð¾Ð·Ð½Ð°":5914,"ĠÐ¼Ð°ÑĢÑĪÑĢÑĥ":5915,"ÑĤÐ¸Ð»Ð¸ÑģÑĮ":5916,"/(":5917,"ĠÐ¶Ð¸Ð²Ñĥ":5918,"Ð¡ÐµÐ¹ÑĩÐ°Ñģ":5919,"ĠÐµÐ²ÑĢÐ¾Ð¿ÐµÐ¹":5920,"ÑĪÐ¸ÑĤÑĮ":5921,"Ð¡ÑĤÐ°":5922,"ÐµÐ¼ÑĭÐ¹":5923,"ĠÐ²ÑĢÐµÐ¼ÐµÐ½":5924,"ĠÐ¾ÑģÑĤÐ°Ð»ÑĮÐ½ÑĭÐµ":5925,"ĠÑģÑĤÐµÐ¿ÐµÐ½Ð¸":5926,"ĠÐ²ÐµÑģÑĤÐ¸":5927,"ĠÐ¿ÐµÑĢÐµÐ²":5928,"ĠÐ½Ð°ÑģÑĤÐ¾ÑıÑīÐµÐµ":5929,"ĠÐ¿ÑĥÑģ":5930,"ĠÑįÐ»ÐµÐ¼ÐµÐ½ÑĤ":5931,"Ġ=)":5932,"Ð½Ð¸Ð½Ð³":5933,"ĠÐ¾ÐºÑĢÑĥÐ¶Ð":5934,"ĠÑĢÐ°ÑģÑĤÐµ":5935,"roid":5936,"ĠÐ¡Ð¾Ð»":5937,"Ð½Ð¸ÑıÐ¼Ð¸":5938,"ĠÐ²ÑĭÐ³Ð»ÑıÐ´Ð¸ÑĤ":5939,"Ð·Ð¸Ð»":5940,"ĠÐ¢Ð¸":5941,"ĠÐ½Ð°Ð¿Ð":5942,"Ð»ÐµÑĤÐµ":5943,"ĠÐŀÑĤÐ":5944,"ĠÑĤÐµÐºÑĥ":5945,"ĠÐ·Ð½Ð°ÑĩÐµÐ½Ð¸Ðµ":5946,"ĠÐŃÑĤÐ¾Ñ":5947,"ĠÐŃÑĤÐ¾ÑĤ":5948,"ĠÐ¿ÑĢÐµÑĤÐµ":5949,"ÑĪÐµÐ»":5950,"ĠÐ¸ÑģÐ¿ÑĭÑĤÐ°":5951,"ĠÐºÐ¾ÑĢÐ¸":5952,"ĠÐĿÐ¸ÐºÐ¾Ð»Ð":5953,"Ð½ÑıÐ»":5954,"ĠÑĩÐµÑģÑĤÐ½Ð¾":5955,"ĠÑĢÐ°Ð¹Ð¾Ð½":5956,"ĠÐ¿Ð¾Ð´ÑĤÐ²ÐµÑĢÐ¶":5957,"Ġ500":5958,"ĠÐ¼Ð¾ÑĢÑı":5959,"ĠÐ´ÐµÐ»ÐµÐ½Ð¸Ñı":5960,"Ð¾Ð´Ð¸Ð¼":5961,"ĠÑģÑĤÐ°ÑĤÑĮÐ¸":5962,"ĠÑįÐºÑĢÐ°":5963,"ublic":5964,"ĠÐ²ÑĭÐ¿Ñĥ":5965,"ĠÑĢÐ°ÑģÑģÑĤÐ¾Ñı":5966,"Ð½ÐµÑĪÑĮ":5967,"°ÑĳÑĤ":5968,"ĠÐĺÐ²Ð°":5969,"¸ÑĤÐµÐº":5970,"ĠÐ¿Ð¾ÑĢÑ":5971,"ÑĨÐ°Ð¼":5972,"ĠÐ¿Ð¾ÑĢÑĤ":5973,"ĠÑĢÐµÐ¶Ð¸":5974,"ĠÑĢÐ°Ð·ÑĢÐ°Ð±Ð¾ÑĤÐºÐ":5975,"ÑĢÐ¸ÐºÐ°":5976,"ĠÐ´ÐµÑıÑĤÐµÐ»ÑĮÐ½Ð¾ÑģÑĤÐ¸":5977,"ÐµÐ¼ÑĭÑħ":5978,"oogle":5979,"¾ÑĩÐ¸":5980,"Ð¡ÐļÐĴÐĲ":5981,"!Â»":5982,"ĠÐ¾Ð´Ð¸Ð½Ð°":5983,"ĠÐ½ÐµÐ±Ð¾":5984,"Ð±ÐµÐ½Ð¾Ðº":5985,"ÑĦÐµ":5986,"ÐŁÐ¾ÑģÐ»Ðµ":5987,"ĠÐ¿ÑĢÐ¸ÑĩÐµÐ¼":5988,"Ð¼Ð¾ÑĨÐ":5989,"ĠÐ´Ð¾ÑĢÐ¾Ð³Ðµ":5990,"ĠÐ¿ÑĢÐ°Ð²Ð¸Ð»Ð¾":5991,"ĠÐ²ÑģÐºÐ¾":5992,"ĠÑģÐ¾Ð»Ð½ÑĨÐµ":5993,"ĠÑĦÑĢÐ°Ð½ÑĨÑĥÐ·":5994,"ĠÐ¿Ð»Ð¾ÑīÐ°Ð´":5995,"Ð»Ð¾Ð²Ð°":5996,"ÐľÐŀÐ¡ÐļÐĴÐĲ":5997,"%.":5998,"ĠÐ¿ÑĢÐ¸ÑĢÐ¾Ð´":5999,"ĠÐ·Ð½Ð°ÑĩÐµÐ½Ð¸Ð¹":6000,"ĠÐ¿ÑĢÐµÐºÑĢÐ°ÑģÐ½Ð¾":6001,"Ġ2013":6002,"ĠÐ·Ð°ÐºÑĥ":6003,"ĠÐĺÑħ":6004,"ĠÐ´ÑĥÑĪÐ°":6005,"ĠÑĢÐ°ÑģÑģÐ¼Ð¾ÑĤ":6006,"ÑĢÐµÑĨ":6007,"Ð³Ð°Ñİ":6008,"Ð¾Ð»Ð¾Ñģ":6009,"ĠÐ½ÐµÐ¿Ð¾Ð½":6010,"ÐĲÐ²":6011,"ĠÑĤÑĢÑĥÐ´Ð½Ð¾":6012,"Ð¼Ð¾Ð²":6013,"ĠÑĩÐ¸ÑģÑĤ":6014,"ÑĩÐ°Ð»ÑģÑı":6015,"ĠÐ¿ÐµÑĢÐ²ÑĭÐµ":6016,"ĠÐ¿ÑĢÑĭ":6017,"ĠÐ¿ÑĢÐ¸Ð½ÐµÑģ":6018,"ÑĤÑĢÐ°ÑĦ":6019,"ÐºÐ°Ð»Ð¸":6020,"Ġreturn":6021,"ĠÐ»ÑİÐ±Ñĭ":6022,"ĠÐ°Ð²ÑĤÐ¾Ð±":6023,"ÑĢÐ¸ÑĤÐ°":6024,"ĠÐ¿ÐµÑĢÐ²ÑĭÑħ":6025,"ĠÑģÐºÐ°Ð¶Ñĥ":6026,"ĠÐ§ÑĤÐ¾Ð±Ñĭ":6027,"Ð¶ÐµÐ½Ð¸Ð¹":6028,"ĠÐĵÐµÑĢÐ¼Ð°Ð½Ð¸Ð¸":6029,"Ð¾Ð·Ðµ":6030,"ÑĪÐ¸Ð½":6031,"Ð»ÑıÐ¼Ð¸":6032,"ĠÐ¿Ð¾Ñį":6033,"Ð½Ð¸Ð»ÑģÑı":6034,"ĠÐ³Ð¾ÑĤÐ¾Ð²Ð":6035,"ĠÐ¿Ð¾ÐºÐ":6036,"ÑĤÐ¸ÑģÑĤÐ¸":6037,"Ð¾Ð¿ÑĢÐ¸Ñı":6038,"ĠÐ¿ÑĢÐ¸ÑħÐ¾Ð´Ð¸ÑĤÑģÑı":6039,"ĠÑĢÐµÑĦÐ":6040,"ĠÐºÑĢÐ¾Ð²Ð¸":6041,"ĠÐ·Ð°Ð²Ð¾Ð´":6042,"ive":6043,"ĠÐ¼Ð¸Ð»Ð»Ð¸Ð°":6044,"Ð»Ð°Ð½Ð´":6045,"100":6046,"ĠÐ¿Ð¾ÑĪÐµÐ»":6047,"ĠÐ´Ð¾ÐºÐ°Ð·Ð°":6048,"Ð¾Ð»ÐµÐ·":6049,"ĠÐ¿Ð°ÑĢÑ":6050,"ĠÐ¿Ð°ÑĢÑĤ":6051,"ĠÐ¡ÐºÐ¾Ð»ÑĮÐºÐ¾":6052,"¸ÑĨÐ¸Ð½":6053,"47":6054,"ĠÐ½Ð°Ð¸Ð±Ð¾Ð»ÑĮ":6055,"Ð¿Ð°Ð½Ð¸Ð¸":6056,"ĠÐ´ÐµÑģÑıÑĤÑĮ":6057,"ĠÐľÐ¾ÑģÐºÐ¾Ð²":6058,"ĠÐłÐµÑģ":6059,"ser":6060,"ĠÐ¸Ð½Ð¶Ðµ":6061,"ĠÑģÑĩÐ°ÑģÑĤÐ»Ð¸":6062,"ĠÑģÐ»ÑĭÑĪÐ°Ð»":6063,"Ð¾Ð³Ð»Ð°":6064,"ĠÐ¾ÑĤÐ¿ÑĢÐ°Ð²Ð»Ñı":6065,"ĠÐ¦ÐµÐ½ÑĤ":6066,"ĠÐºÐ¾ÑģÑĤ":6067,"ĠÐ½ÐµÐ±Ðµ":6068,"ĠÑģÐ¾Ð³Ð»Ð°ÑĪÐµ":6069,"Ð±Ð¸Ð½":6070,"ÑĤÐ¾ÑĢÐ¾Ð¹":6071,"ĠÐ±ÑĭÑģÑĤÑĢÐµÐ":6072,"ĠÐ¡ÐµÐ²ÐµÑĢ":6073,"ĠÐ¾Ð±ÑĢÐ°ÑīÐ":6074,"ĠÐ±ÑĭÑģÑĤÑĢÐµÐµ":6075,"ĠÐ½ÐµÐ·Ð½Ð°":6076,"ĠÐ¾Ð±Ð½Ð°ÑĢÑĥÐ¶Ð":6077,"ÑĩÐ¸Ð²":6078,"ĠÐ²ÐµÐ´Ð¾Ð¼":6079,"ĠÑģÐ»ÑĥÑĩÐ¸Ð»Ð¾ÑģÑĮ":6080,"ĠÐ³Ð¾ÑģÐ¿":6081,"ll":6082,"ĠÐ¾ÑģÐºÐ¾ÑĢÐ±":6083,"200":6084,"Ġof":6085,"ĠÐ´Ð¾ÑĢÐ¾Ð³Ñĥ":6086,"Ð»Ð¸ÑĤÐµ":6087,"ĠÐ²Ð½Ð¸Ð¼Ð°Ð½Ð¸Ñı":6088,"ĠÐ»ÑİÐ´ÑĮÐ¼Ð¸":6089,"°Ð½Ð¸Ðµ":6090,"ĠÐ¾Ð³Ð¾Ð½ÑĮ":6091,"ÐŁÑĢÐ¾ÑģÑĤÐ¾":6092,"ĠÐ¤Ðµ":6093,"¸ÑĪÑĮÑģÑı":6094,"ĠÐ¿Ð¾ÑĢÑĥ":6095,"ĠÑĤÑĢÐµÐ²":6096,"ĠÐ½Ð°Ð·ÑĭÐ²Ð°ÐµÑĤÑģÑı":6097,"ĠÐļÐ¾Ð¼":6098,"Ð±ÐµÐ»ÑĮ":6099,"¾ÑĪÐµÐ´":6100,"ĠÐ¿Ð¾Ð·Ð¶Ðµ":6101,"ĠÑĤÐµÐ¼Ð°":6102,"ĠÑĩÐµÐ»Ð¾Ð²ÐµÐºÑĥ":6103,"ĠÐ³Ð¾Ð´Ð¾Ð²":6104,"ÐĺÐĲ":6105,"ÑĤÐ¸ÑĩÐµÑģÐºÐ¾Ð¹":6106,"ĠÐ²Ð¾Ð·Ð´ÑĥÑħ":6107,"ĠÐĳÐµÑĢ":6108,"ÑĩÐ½ÑĭÐ¼Ð¸":6109,"ĠÑĥÐ³Ð¾Ð´Ð½Ð¾":6110,"ĠÐºÐ°Ð¼ÐµÑĢ":6111,"++":6112,"Ð¾Ð³Ð»Ð°ÑģÐ½Ð¾":6113,"ĠÐºÑĥÐ¿":6114,"ĠÐ¿ÑĢÐ¸Ð½ÑĨÐ¸Ð¿Ðµ":6115,"ÑĩÐµÐ":6116,"ĠÑĢÐ°Ð·Ð¼Ð":6117,"ÐłÐµ":6118,"ĠÐ²ÑĢÐµÐ¼ÐµÐ½Ð°":6119,"Ð³Ð¸Ð½Ð°":6120,"name":6121,"ĠÐ³ÑĢÑĥÐ·":6122,"ĠÑģÐ¾ÑģÑ":6123,"ĠÐ²Ð·Ð´Ð¾Ñħ":6124,"ĠÐ´Ð¾Ð¼Ð°ÑĪ":6125,"ĠÑħÐ¾ÑĢÐ¾ÑĪÐ¸Ð¹":6126,"Ð½ÑĨÐ°":6127,"ĠÑģÐ¾ÑģÑĤ":6128,"ĠÑĪÐºÐ¾Ð»Ñĭ":6129,"ÑĳÑħ":6130,"Ð²ÑĪÐ¸ÑħÑģÑı":6131,"ĠÐ¾Ð±Ð°":6132,"ĠÑģÐ¾Ð²Ð¼ÐµÑģÑĤ":6133,"ÑĩÐ¸Ð»Ð°":6134,"ĠÑĨÐµÐ½Ñĭ":6135,"ĠÐ¾ÐºÐ½Ð°":6136,"ĠÐ¿Ð¾Ð»ÑĥÑĩÐ¸Ð»Ð¸":6137,"ĠÑģÐ¾Ð¾ÑĤÐ²ÐµÑĤÑģÑĤÐ²ÑĥÑİÑīÐ":6138,"ÑĩÐ¸ÑĤÐµÐ»ÑĮÐ½Ð¾":6139,"ĠÑĢÐ°Ð´Ð¾ÑģÑĤÑĮ":6140,"Ð¿Ð¸ÑģÑĮ":6141,"ÑĩÐµÐ½Ð°":6142,"ÑĢÐ¾Ñİ":6143,"ĠÐ¿ÑĢÐµÐ´Ð¿ÑĢÐ¸Ñı":6144,"log":6145,"text":6146,"ĠÑĢÐµÐ°Ð»Ð¸Ð·":6147,"Ð¶Ð°ÑĤ":6148,"ĠÐ±Ð¾Ð»":6149,"ĠÐłÐ¸":6150,"\":":6151,"ĠÐºÑĢÐ¾Ð²ÑĮ":6152,"ÑħÐ²Ð°":6153,"ĠÑģÐ¸ÑĤÑĥÐ°ÑĨÐ¸Ñİ":6154,"ÑģÑĤÐ°Ð½Ð¾Ð²":6155,"ey":6156,"ĠÐ¿ÑĢÐ¾Ð¼ÑĭÑĪ":6157,"ÑĤÐ¸ÑĩÐµÑģÐºÐ¸Ñħ":6158,"Ð¾Ð³Ð°Ð¼":6159,"Ð½Ð´Ð¸Ð¸":6160,"ĠÐ±Ð»Ð°Ð³Ð¾Ð´Ð°ÑĢÑı":6161,"ÑĳÑģ":6162,"Ð²Ð°ÑİÑģÑĮ":6163,"ÑĢÐ°Ð»ÑĮÐ½Ð¾Ð³Ð¾":6164,"Ð»Ð¾Ð½Ð":6165,"ĠÑĨÐµÐ½ÑĤÑĢÐ°":6166,"ĠÐ¿ÑĢÐ¸Ð²ÐµÑĤ":6167,"Ð¾Ð±ÑĢÐ°Ð·":6168,"ĠÐ¶Ð¸ÑĤÐµÐ»ÐµÐ¹":6169,"ĠÐ´ÑĢÑĥÐ·ÐµÐ¹":6170,"ĠÑħÐ°ÑĢÐ°ÐºÑĤÐµÑĢ":6171,"ĠÐ¿Ð¾Ð»Ð¸ÑĨÐ¸Ð¸":6172,"ÐºÐ¾Ð¼Ð°":6173,"ĠÐ²Ð¾Ð¿ÑĢÐ¾ÑģÑĥ":6174,"ox":6175,"Ð·Ð°ÑĨÐ¸Ñİ":6176,"ĠÑģÐ²ÐµÑĤÐ°":6177,"ĠÐ´Ñı":6178,"ÑĤÐ¸Ð²Ð½Ð¾":6179,"ÑĤÐ¸ÐµÐ¼":6180,"ĠÐľÐµÐ¶Ð´Ñĥ":6181,"ĠÑıÑģÐ½Ð¾":6182,"Ð¾Ð³ÑĢÐ°ÑĦÐ¸":6183,"ÑĮÐµÐ²":6184,"ĠÑģÐ¾Ð·Ð´Ð°ÑĤÑĮ":6185,"ĠÐ·Ð°ÑĤÐ¾":6186,"ĠÐ¿Ð°ÑĢÐ»Ð°":6187,"Ð»ÑıÑİÑĤ":6188,"Ð¿Ð¾ÑģÐ¾Ð±":6189,"ÑĩÐµÑĤÐ°":6190,"ĠÑĨÐ¸ÑĦÑĢÐ°":6191,"ĠÐĹÐ°ÑĤÐµÐ¼":6192,"ÑĤÐ²Ðµ":6193,"Ġint":6194,"ĠÑģÑĩÐ¸ÑĤÐ°ÑĤÑĮ":6195,"ÐºÐ²Ð°":6196,"ĠÐĵÐ¾ÑĢ":6197,"ĠÐ¿ÑĢÐ¸Ð¾Ð±ÑĢÐµ":6198,"ĠÐĶÐ¸":6199,"ĠÐ¼Ð°ÐºÑģÐ¸Ð¼Ð°":6200,"ÐŁÑĢÐµÐ´":6201,"ĠÐ´ÐµÐ¹ÑģÑĤÐ²Ð¸Ð¹":6202,"ÐĽÐµ":6203,"ube":6204,"ĠÐºÐ¾Ð»ÑĮ":6205,"ĠÑĤÐ¾ÑĢÐ³Ð¾Ð²":6206,"ĠÑģÐ°Ð½Ðº":6207,"ĠÐ»Ð°Ð´":6208,"ĠÑĢÐµÐ·ÐºÐ¾":6209,")*(":6210,"Ð½Ð¸ÑĤÑĮÑģÑı":6211,"ĠÐ¶ÐµÑĢÑĤÐ²":6212,"Ð¼ÐµÑĩÐ°":6213,"66":6214,"ĠÐ°ÐºÐºÐ°ÑĥÐ½ÑĤ":6215,"ĠÑĩÑĥÐ¶":6216,"und":6217,"ÑĢÐ°Ñı":6218,"ĠÑĩÐµÐ»Ð¾Ð²ÐµÐºÐ¾Ð¼":6219,"ĠÐ¿ÑĢÐ¾Ð¸Ð·Ð½ÐµÑģ":6220,"Ð¾ÑĢÐ°":6221,"ĠÐ¾Ð´Ð½Ð¾Ð²ÑĢÐµÐ¼ÐµÐ½Ð½Ð¾":6222,"ĠÐ´ÐµÐ²ÑĥÑĪÐºÐ¸":6223,"ĠÐ¿ÑĢÐ¸ÐµÐ·":6224,"ĠÐ¿ÑĢÐ¸Ð½ÑıÑĤÑĮ":6225,"Ġ77":6226,"ĠÐ»Ð¸Ð´ÐµÑĢ":6227,"Ð·Ð¸Ñı":6228,"Ð¿Ð¸Ð¹":6229,"Ð©":6230,"ĠÐ¾Ð±Ðµ":6231,"ĠÐ¼Ð°ÑĤÐµÑĢÐ¸":6232,"ÑĤÐ¾ÑĢÐ¸Ð¸":6233,"ĠÐ¿Ð¾Ð¼ÐµÑīÐµ":6234,"Ġ300":6235,"####":6236,"ĠÑĢÐµÐ¹ÑĤÐ¸":6237,"Ð²ÑĭÐ¼Ð¸":6238,"µÐ½Ð½ÑĭÐ¼":6239,"Ġ))":6240,"µÐ½ÑĤÐ¸":6241,"ĠÐ´ÐµÐ¼Ð¾Ð½":6242,"µÐ±Ð°":6243,"Ð¾Ð³Ð°Ð¼Ð¸":6244,"ĠÐ²Ð¾Ð·Ð»Ðµ":6245,"ase":6246,"ÑĮÐµÐ¹":6247,"alue":6248,"¸ÑģÑĤ":6249,"ĠÐ¿ÑĢÐ¾ÑĪÐ»Ð¾Ð¼":6250,"ĠÑģÐ¾Ð±ÑĭÑĤÐ¸Ñı":6251,"ER":6252,"ject":6253,"ĠÐ½Ð°Ð¸Ð±Ð¾Ð»ÐµÐµ":6254,"ĠÑģÐ¾ÑĤÑĢÑĥÐ´Ð½Ð¸":6255,"ÑĤÑĥÑĢÐµ":6256,"ĠÐ²ÑĤÐ¾ÑĢÐ°Ñı":6257,"ĠÐºÐ¾ÑĢÐ¾ÑĤÐºÐ":6258,"ĠÑĩÐ¸ÑģÑĤÐ¾":6259,"ĠÐ¿Ð¾Ð·Ð´":6260,"ÑĢÐ¸ÑģÑĤÐ°":6261,"ĠÑĩÐ°Ð¹":6262,"Ð²Ð°ÐµÑĤÐµ":6263,"Ð½ÑĥÐ»Ð¾":6264,"ĠÐ¼Ð°ÑģÑĤÐµÑĢ":6265,"ĠÐ²ÑĢÐµÐ¼ÐµÐ½ÐµÐ¼":6266,"ĠÐ¼Ð¾Ð¼ÐµÐ½ÑĤÐ°":6267,"Ð¿Ð¾ÑĤÑĢÐµÐ±":6268,"Ð¸Ð¼Ð¸":6269,"ĠÐĶÐ¾Ð½":6270,"ĠÐ´ÑĢÑĥÐ³Ð¸Ð¼Ð¸":6271,"ĠÑĩÑĥÐ²ÑģÑĤÐ²Ð°":6272,"ĠÐ¡ÐľÐĺ":6273,"ĠÑĨÐµÐ½ÑĤÑĢÐµ":6274,"Ð¾ÐµÐ²":6275,"ĠÐ¿Ð¾Ð·Ð²Ð¾Ð»Ñı":6276,"Ð·Ð°Ð¿Ð½Ð¾":6277,"ĠÐ¸Ð·Ð¼ÐµÐ½ÐµÐ½Ð¸Ñı":6278,"ĠÐºÑĢÐ°Ð¹Ð½ÐµÐ¹":6279,"Ð±Ð°Ð»":6280,"ĠÐ½ÐµÑģÐ¼Ð¾ÑĤÑĢÑı":6281,"ĠÐ¸Ð½Ñģ":6282,"ĠÐ¾ÑģÑĤÐ°ÑĤÐ¾Ðº":6283,"ĠÑĦÐ¾ÑĢÐ¼Ðµ":6284,"ĠÐ³Ð¾Ð»Ñĥ":6285,"Ð±ÐºÐ°":6286,"ĠÐ¿Ð¾Ð»Ð°":6287,"ĠÐ´Ð¸Ð²Ð¸":6288,"ĠÐ¿ÑĢÐµÐ´ÑĭÐ´ÑĥÑīÐ":6289,"ÑĤÐ°Ð»Ð°":6290,"ĠÑģÑĤÐµÐº":6291,"Ð¾Ð¿ÑĭÑĤ":6292,"ÑīÐ¸Ðµ":6293,"ĠÑĢÐ°ÑģÑģÐºÐ°Ð·Ð°":6294,"ĠÐ¼ÐµÑĢÐ¾Ð¿ÑĢÐ¸Ñı":6295,"ĠÑĩÑĳÑĢ":6296,"ĠÐºÐ°ÑģÐ°ÐµÑĤÑģÑı":6297,"ĠÐ¾Ð±Ð½Ð¾Ð²":6298,"ÑģÑĪÑĤÐ°":6299,"±Ñĥ":6300,"ÐºÐ¾Ð³Ð´Ð°":6301,"ĠÑģÐµÐ¼ÑĮÐ¸":6302,"ÐºÐµÑĢ":6303,"ĠÐ²ÑĭÑĢÐ¾Ñģ":6304,"Ð½Ð¸Ð¼Ð¸":6305,"ĠÑĢÐ°Ð·ÑĢÐµÑĪÐµ":6306,"ĠÑĥÑģÑĤÑĢÐ°Ð¸":6307,"ĠÑģÐºÐ²Ð¾Ð·ÑĮ":6308,"ÑĩÐµÑģÐºÐ¾Ð¼":6309,"ĠÐ·Ð°ÑīÐ¸ÑīÐ":6310,"ĠÐ¸Ð³ÑĢÐ°ÑĤÑĮ":6311,"ÐĺÐ»Ð¸":6312,"ÐĴÐ¸":6313,"ĠÑģÐ»ÑĥÐ¶Ð±Ñĭ":6314,"ĠÑĢÐ°Ð·Ð¾Ð±":6315,"ĠÑħÐ¸":6316,"Ð²Ð¸Ð½":6317,"ÑĩÐ¾Ðº":6318,"ĠÐ¿Ð¾Ð»ÑĥÑĩÐ¸Ð»Ð¾ÑģÑĮ":6319,"ĠÑĪÐµÑģÑĤÑĮ":6320,"ĠÐŁÐ¸ÐºÐ°":6321,"ĠÑģÑĩÐ¸ÑĤÐ°Ñİ":6322,"ĠÐ¼Ð¾Ð±Ð¸Ð»ÑĮ":6323,"ĠÐ·Ð°Ð¹":6324,"ĠÑģÐ¾Ð²Ð":6325,"ĠÐ²Ð½Ñĥ":6326,"ĠÑĥÑĩÐµÐ±":6327,"Ð½Ð°Ð´ÑĨÐ°ÑĤÑĮ":6328,"ĠÑĤÐ²Ð¾Ñı":6329,"ĠÐ¸Ð·Ð´Ð°":6330,"ĠÑĪÐµ":6331,"Ð³Ð°Ñħ":6332,"Ð¢ÐµÐ¿ÐµÑĢÑĮ":6333,"ÐºÐ°ÑĤ":6334,"ĠÐ½Ð°ÑĩÐ¸Ð½Ð°ÐµÑĤ":6335,"\"?":6336,"ĠÑĢÐ°Ð·ÑĥÐ¼":6337,"ire":6338,"°ÑİÑīÐµÐ¹":6339,"ĠÐ³Ð¾Ð²Ð¾ÑĢÐ¸Ð»Ð¸":6340,"ĠÑģÑĤÐ¾Ð¸Ð¼Ð¾ÑģÑĤÑĮ":6341,"Ġ72":6342,"ĠÐºÐ¾ÑĦÐ":6343,"ĠÑģÐµÑĢÐµÐ´Ð¸":6344,"ĠÑĢÐ¾ÑģÑģÐ¸Ð¹ÑģÐºÐ¸Ñħ":6345,"ĠÐ¿ÑģÐ¸ÑħÐ":6346,"Ð´Ð°Ð»ÑĮ":6347,"ĠÐ¡ÐºÐ°":6348,"ĠÐ±Ð¾Ð³":6349,"ĠÐ¿Ð¾Ð´Ñģ":6350,"Ð±ÐµÐ·":6351,"Ð»Ð¸Ð²Ð":6352,"ĠÐ´Ð°Ð»ÐµÐµ":6353,"ÑīÐ¸ÐºÐ¾Ð²":6354,"ÐµÐ²Ð°":6355,"pro":6356,"ĠÑĢÐ¸ÑģÐº":6357,"ĠÐ²Ð°ÑĪÐµÐ¹":6358,"ÐĹÐ½Ð°":6359,"ĠÐ¿Ð¾Ð»Ð¸ÑĨÐµÐ¹":6360,"ĠÐ±ÑĥÐ´ÑĮ":6361,"ĠÐ½ÐµÐ±Ð¾Ð»ÑĮ":6362,"ĠÐļÐ¾Ð»":6363,"Ð½ÐµÐ½Ð¸Ð¸":6364,"ÑĥÐ³":6365,"ĠÐ½Ð°ÑĪÐ°":6366,"ĠÐ´Ð¾ÑģÑĤÐ¸Ð³":6367,"ĠÐ´Ð°Ð»Ð¸":6368,"ÑĨÐ°ÑĤÐ¸":6369,"ĠÑĥÑģÐ¿ÐµÐ»":6370,"Ð²Ð¾Ð¼":6371,"ĠÐ¾Ð¿ÐµÑĢÐ°ÑĨÐ¸Ð¸":6372,"ĠÑĤÐ²Ð¾ÐµÐ¹":6373,"ĠÐ¡Ð²":6374,"ĠÐ²ÐµÑĢÐ½ÑĥÐ»ÑģÑı":6375,"ÑĤÐµÑħ":6376,"ÑĤÐ¸ÑĤÑģÑı":6377,"Ð½Ð¾Ð¼Ð":6378,"ĤÑģ":6379,"ÑĤÑģ":6380,"Ð¼ÐµÐµÑĤÑģÑı":6381,"Ġ2017":6382,"ĠÐºÐ°ÑĢÐ°":6383,"Ð¾Ð¾Ð±ÑĢÐ°Ð·":6384,"ĠÐ¾ÑģÐ½Ð¾Ð²Ðµ":6385,"ĠÑĢÐµÐ±Ñı":6386,"ĠÐ²Ð¾Ð·Ð²ÑĢÐ°ÑīÐ":6387,"Ð¿Ð¾ÑĤÐµ":6388,"Ð½ÑĮÐµ":6389,"per":6390,"ĤÐ½ÑĭÐ¹":6391,"ÑĤÐ½ÑĭÐ¹":6392,"ĠÐĴÐ¾Ð·Ð¼Ð¾Ð¶Ð½Ð¾":6393,"ĠÐ²Ð¾Ð·Ð±Ñĥ":6394,"ĠÐ¾ÑĢÑĥÐ¶Ð¸Ðµ":6395,"ĠÑĢÑĥÐºÐ°":6396,"95":6397,"ĠÑģÐ¿Ð°ÑĤÑĮ":6398,"Ð¾Ð½Ð¾Ñģ":6399}